/**
  ******************************************************************************
  * @file    network_data_params.c
  * @author  AST Embedded Analytics Research Platform
  * @date    2025-01-23T13:07:35+0000
  * @brief   AI Tool Automatic Code Generator for Embedded NN computing
  ******************************************************************************
  * Copyright (c) 2025 STMicroelectronics.
  * All rights reserved.
  *
  * This software is licensed under terms that can be found in the LICENSE file
  * in the root directory of this software component.
  * If no LICENSE file comes with this software, it is provided AS-IS.
  ******************************************************************************
  */

#include "network_data_params.h"


/**  Activations Section  ****************************************************/
ai_handle g_network_activations_table[1 + 2] = {
  AI_HANDLE_PTR(AI_MAGIC_MARKER),
  AI_HANDLE_PTR(NULL),
  AI_HANDLE_PTR(AI_MAGIC_MARKER),
};




/**  Weights Section  ********************************************************/
AI_ALIGNED(32)
const ai_u64 s_network_weights_array_u64[4762] = {
  0xa8c5cd5a5617fe0bU, 0x21dd94a3b4250dccU, 0x4573627fa7d1b008U, 0x7f56481cf4ddf1f0U,
  0xef2d221cedcd3956U, 0xc8b5ba1906d5cab9U, 0xf7acd208ecce03d3U, 0x2751cd4006fc5c16U,
  0xf2ffe6551b158109U, 0x4428ed32e54803f0U, 0xf0e2ad213ea5bd00U, 0x5cf7bc9081f3331eU,
  0xd400ef85e8ecdb22U, 0xdc735c2afd087113U, 0xe5013433c42e6f00U, 0x2827f88188e3f6b4U,
  0xed93aa818ef3ec13U, 0x1bbcc6cecbaae5d6U, 0x4bc16a3f522bde48U, 0x86c97f2ea6a01939U,
  0x23f212c5e52f54e8U, 0x7ff2fed64e1b004cU, 0xaad8c72af1300c5bU, 0xbec8e984ac00258fU,
  0xf517ed1c06fab1b0U, 0xfffffeba0000018cU, 0xffffffb1fffffb70U, 0x10dfffffe16U,
  0x1fefffffcafU, 0xa1101400bed0413U, 0x214bd2912eb04fdU, 0xbcd6f9f922da2c05U,
  0xc3e317f2cd0d0416U, 0xddf00d26e319d0f6U, 0xeeef071c07e83112U, 0xd7c935f2cee707f3U,
  0x9fe837feb8ebe9b6U, 0xc5f41521dd09efcfU, 0xf900b11bede329ddU, 0x230e2bd5f8f3c0e5U,
  0xd5c82011d50bd7b0U, 0xbdf8dd2acdf90a81U, 0x2627e2e9cafd45dbU, 0xfd0ed7f0f8ef0e00U,
  0xeef1e3070115f4ceU, 0xd80798ff1bf00ac5U, 0xf548aae7e005f308U, 0xfe705132ef5db2eU,
  0xc60ad6081c220731U, 0xda09cdf7fde40b16U, 0xed17c4f5120b1520U, 0xde0cf50a0e1b1019U,
  0xe7e004290f042161U, 0x24f6ca0b15f41701U, 0xdb0c1ee5f2f0e501U, 0xb1548f402ebdde7U,
  0x2f04fd06f9eaedc9U, 0x90e15f7d915e7d1U, 0x4ca07fbec0d030bU, 0xc4f1b618f2050f81U,
  0x412dc6f60d10e5beU, 0x1cf9e3ecd9dee0f3U, 0x4ed0fd4f800e2eeU, 0xf50d1a1bca09d9c6U,
  0xae25a0f91d14fddaU, 0xd84fd3dd3131f82dU, 0xb601eafae605ed5aU, 0xbe25071b181100f8U,
  0x392300110fe20bcfU, 0xbd0ca60c38ea1d23U, 0xdf0297fc43401c60U, 0xe0fef9340de12e37U,
  0x1c11ea3a19d74be4U, 0x3df936d5dfc7119eU, 0xc1c3edf723d8f230U, 0xf5ebfefa16c4f831U,
  0x21d6371022b40d0bU, 0x4123decbdc93ae2U, 0xe7df24d7dce9c49aU, 0xdff8f7eefe1a0916U,
  0x2ef8f201bdf3ec32U, 0x29f32412f4dedefaU, 0x6be20f4fbdd08fcU, 0x9c2060a15dafde5U,
  0xb3edcc10ec1857d5U, 0xcef901d3ba1229d2U, 0xee08eff82511c341U, 0xf3d9d5fc1edef926U,
  0xc6d233f503d6e9e2U, 0xcc7fcfcf6c6f3ccU, 0xb81005e413201192U, 0xf62bd7e211281de8U,
  0xe7fde81e1bf3ad31U, 0xe5c62ff3f6ebf0e5U, 0xee9c19e6fcc1d4f3U, 0xc129a5fa4e0d03cdU,
  0xef2dbdb6295a06dcU, 0xe0f3ffedda0b0427U, 0xbbe0fc041111f11cU, 0xf6f92405e8dfe0ceU,
  0xe6ea2bfc0de3241aU, 0xe72381073049260cU, 0x142baf08c7280bc4U, 0xff16fb11090cfe17U,
  0xc1e00b00ff13fcd7U, 0xb3e80effdb2008dcU, 0xdf0a0f1fcd2407eeU, 0xd204fb1cf81119f3U,
  0xfbf3e6160afc18f7U, 0xd9b609f9fd0c27dfU, 0x50af4ffec141f98U, 0x1322dc18dcfcf6eaU,
  0xe09d0f50fd719efU, 0x608cc0913f413ffU, 0xc6f6e00e0afafabbU, 0xf10aaefe0c03ff81U,
  0x111ebd0ec0efffecU, 0x9f4e7f414d3f70eU, 0xcdde8fe0d051633U, 0xfd09c8f60bf012dcU,
  0x316a1fc18f805d8U, 0x1f24daf5d1e0f1f5U, 0x9e1e7eb05e3f21aU, 0xd00e90516dbfd21U,
  0x4038e10281b1ee4U, 0xf017d609050e09dcU, 0x1001f8edcaf7fbfeU, 0xef201eefdddeb16U,
  0x2007f0dc07e9ff0cU, 0xcd0924eae7fd023cU, 0xf207070203ecfd15U, 0x262b1402e8d1dcd7U,
  0xf81dd210f2e7e3d4U, 0x1d0bc70aded0e0aaU, 0xfb26f5f0e21c1ee7U, 0xbfbe0f6edf1ddd9U,
  0x2a01efea11e3cf19U, 0xe817eed3d9e92c03U, 0xa17e20203dcf43dU, 0xcd0ee627d6262ae4U,
  0xb228aae9fb1738dbU, 0xf222da171614e950U, 0xfb22f6cf27e0d830U, 0x30c15eed301bb26U,
  0xe307921744e4fad9U, 0x9a2c811f0e194fe2U, 0xadee0bfb04092bfdU, 0xb9f41736ea230534U,
  0xfe07f7370c251cfcU, 0x14a6acdc0c94eec6U, 0xfcc6c3e13fabd41bU, 0xe9b305f13f0334e1U,
  0xdea5c232f9e626f4U, 0x8c5f7371fda2acaU, 0x130af50bf6d0de3dU, 0xd006f5fae1e6d727U,
  0x98eefcd21014e0f1U, 0xde221024c129ecf5U, 0xe01c1c04d6f8db08U, 0x836fc05ea01332bU,
  0xf703202ef9020a55U, 0xf0fb2afe12f8e40aU, 0xfd15f310d8ebf5dbU, 0x201e1af8f91d1136U,
  0x7dc0cee3901333fU, 0x25c11444ee0153fbU, 0x34dbf258e20c2abdU, 0x28f7d235df022281U,
  0x32e3e80eaaf6ee9aU, 0xed0c5e548f6ed45U, 0x12dfe1e91fcefa1fU, 0x19cdf5dbfddefbf6U,
  0x21ec0eeae9f8fdeeU, 0x28d9e7b5f5c419e2U, 0xc1c5eacef7f2a2e2U, 0xbee4d7bcf2c6cee9U,
  0xc6e1f8a8e8f0b4ddU, 0x1e7ee90c203d2fbU, 0xdec2dfbbae00b3f6U, 0xf0effaf90fd3f1d8U,
  0x3feaf9fa0ecfdab6U, 0x3d1ddb0f2cf6e4f8U, 0x3a1eeaf8e8e8d9aeU, 0x31d4f4ffd7fce987U,
  0xfcf121ff25c3e11eU, 0x9d1f90d2901dad6U, 0x3313d2fb0aea0acdU, 0x1ff7a5d6eeb4d9a5U,
  0xf1e5cecb40b5cfb2U, 0xf0332e38cf4bf07U, 0xf4e703e4f5f5e549U, 0x1518f4bb01f7bb58U,
  0x4ffd9b969e4ea57U, 0xdbf4dc9c7fdaf135U, 0xf2e93205d50cecd8U, 0xf3162325ba260911U,
  0xc71b020eb7360027U, 0xb516f40a2814f964U, 0xb220ee15331ad433U, 0x2ff2f6fb040cf0cbU,
  0x2fffef1ce3fc1aceU, 0xfaeed00e1a2c4fb6U, 0xd900e425202242c4U, 0x10fd0b25fe441f00U,
  0xb91401f6d9e9bf53U, 0xfa1a1ff60fe0d713U, 0x2906edeffaf8ca2cU, 0x49e1ce441cdee617U,
  0x5bd8f74a0fb31426U, 0xabf30bf1bc0ffe01U, 0xa4d6f0282feeea3eU, 0xc4060cf335ee1350U,
  0x8bccee222f23850U, 0x23bee8cf2de2237fU, 0xcdf32c02f6f517d1U, 0xc5f2f318ea190617U,
  0xaed3bd1a490c3a5dU, 0x8fe8b6cf0d1e2014U, 0xb2efaeeaca168dfbU, 0xd5fd073ffbf10704U,
  0xc6133bdfd5f6da0cU, 0xc4ef1ed6d410cd29U, 0x8544d308040fc0ebU, 0xf036c2c7cdcca39dU,
  0xdb194dfbd100f90dU, 0xe5372627ef1bcf05U, 0xf7373c240715fbc5U, 0x3749df10e3f3278fU,
  0x3713fafa04f908feU, 0x2812200246e5d50cU, 0xfaf5c82b6df3ebdfU, 0xf7efd73bdad40cd5U,
  0x24d6241fdea932c7U, 0xf4d503f7f9acfdf4U, 0x5fe1cfcf8d1dbfcU, 0x2c0c09d2c6ee0af2U,
  0x230922de9cf4ed10U, 0x2afa50f0d6f3bc38U, 0xf5ee2ad319bfab5fU, 0xa10e6209ae5e211U,
  0x70330e8810fead9U, 0xe0f92f0295f0cadaU, 0xb80b0f23131c27e7U, 0xe2f8f40ae84130eaU,
  0xef00cbfbcf0f06d7U, 0xe1fef01fc5fef809U, 0x517cd14f7113c16U, 0x5ffed1cfb111046U,
  0xffaf9001afffb52U, 0xf610c4f220f2fbf7U, 0xfc2cb1f9e517d4eaU, 0xd106e7f5c50ec40fU,
  0xf3edf105f9e50305U, 0xfbc3cf0af3e80424U, 0x352aeb9ddd81b3d3U, 0xadcededa3513a6bfU,
  0xb044a0123123def5U, 0x414cd2310a0712f6U, 0xc43b826d715f2c0U, 0xfbff49a2ce5a420U,
  0xa535c6f636fdef3aU, 0xf50814e634cfdd30U, 0x3d0110010a170526U, 0x1eeefa02f6e7062fU,
  0xceeee2dc1ef6b3ecU, 0xb2f70df4b4f2b512U, 0x27114d0a9dd8cc15U, 0xbfa3120a414ae30U,
  0x11f1d530e901071dU, 0xb4000b0bca0ddf1fU, 0xcdf914fab5ffdce5U, 0x1e072734f714cce2U,
  0x209184a36f232f8U, 0xcee9e11ae7d95724U, 0x10269cf89e0801c7U, 0x1301b4f5c3fc0ecaU,
  0xdf2ea220fe205f0U, 0x12ff30fe22d522eeU, 0xf60a12b7f617f4eaU, 0xd509b0d5044feab7U,
  0xcc208cefecf9fdf4U, 0xf700d7f1bfcdb8e4U, 0xd0c51dd7d1ceacf1U, 0xba14e7df1ff5a1f3U,
  0xd41caddb29152ba2U, 0xe12be6e00309f8d5U, 0xf80933fdbdd78107U, 0xf1052904eacc9130U,
  0x1505f6dd10e7db2eU, 0xf2210fcf38f7efd5U, 0xd71c1bf0edfbb3b5U, 0xc208e415d6f5c1c7U,
  0xc210210ae213050bU, 0xbf7e1ccfdf5fe0cU, 0xfffd041ce4102ccbU, 0x2030d743c60f20c4U,
  0xe5fca406dae4170eU, 0xdc08f5dac5042122U, 0xe42904d647f8f426U, 0xc615b44b312c1abfU,
  0xef0fee25122236deU, 0xa9091b1bed10082aU, 0xc2192b2e28f81a1eU, 0x1532da29fcdb1be4U,
  0x43e3ebcc2bcefc2fU, 0xd9d8dfc426c5d935U, 0xe0fafea41ffae4d2U, 0xbe350f8cfb13d0b5U,
  0xfd3503f8d117b302U, 0xfb1302f3f411fd23U, 0x70c00ecede8be2fU, 0x1bbdfa6fb13b1c9U,
  0xf917ffd7ef0abbc2U, 0xe432f525d517b5ddU, 0x4a30253aea01e0f6U, 0x2f26defeefd9d4f8U,
  0xe6adf9d2101200c1U, 0x811d2112080d15a6U, 0xfd38222dedeee4e4U, 0x3a27fc2e021009f2U,
  0xb0314afe8ebe90cU, 0xe3e00c172413ddd5U, 0xe611e800231f15bdU, 0x35251103bf07d9f5U,
  0x201810c0e300f80eU, 0xfcda23cbe9eab2e1U, 0xb92ed000241af1e4U, 0x364dbc1210290bf9U,
  0x1c1c09fdff3ffa16U, 0xb8d8bd03f5eeddfaU, 0xf6c0ec2c28c72102U, 0xebb5faebdaf03dd9U,
  0xf2ec0effe42315beU, 0xedfeeff5c42005a7U, 0xd32dd9c918c1e0ebU, 0x27cf14f3efd40f07U,
  0x7b030e13dcde6e1U, 0xd7184806fb1201eeU, 0x330ee62b38e5f5c7U, 0x1d06f4c0b2d8d0dfU,
  0xfdab6405c803b9e2U, 0xa12139284b36c732U, 0x571a0b0717d91509U, 0x6ad3bdc8c7ac0cb1U,
  0x25d247b7cbfc99e8U, 0x870b23f1d8188100U, 0x224e51117f50b17U, 0x2f22cefeeab6faf5U,
  0x5ae9fcefec95e1cbU, 0xd4f4490ad619b835U, 0xfc29fefed8f1bd2aU, 0x3b2d0d0e00cb0f0fU,
  0x11e9f2e8d7d5f4f1U, 0xeec9f5a5ccc7b0e5U, 0xc31805f417fdfa2bU, 0xdb02e4e71df3fb09U,
  0xde02f741421acfefU, 0xc21b13efee0dfb02U, 0xee139c2de21e33dU, 0xeb14e4e518e8e1f2U,
  0xee17ecd8ef2ef2b8U, 0xe11dfff3edf5c50fU, 0xbdf7f8000d09dc03U, 0xe608ed19e81d00deU,
  0xf28d1f1faddc0ffU, 0xf920f1e5fc1edbdbU, 0xc626171adc25e4e1U, 0xecfe21f5cc00f3d8U,
  0x8fffe17ecc01906U, 0xed14e644ea08fb14U, 0xd303030ada191037U, 0xd7121810dc072436U,
  0xf412d02706023103U, 0x43fe0d26dff347f9U, 0xeb0cd5f0fee419eeU, 0xfeb9b1deb1138cdU,
  0x10ea81f2ebd228d0U, 0x3dddd8cfebf3290fU, 0xaa001b9d9a9f828U, 0xdbf1011717e903e6U,
  0xeaead8ed1a20160bU, 0xef1be0c819163114U, 0xfa13e2f3050fff32U, 0xd714de02ebdf9e22U,
  0xd7d5bb0614b31827U, 0xebd7eabff9fd1a03U, 0xcd1fe5d126220ae0U, 0xf220e1120cfcadfbU,
  0xa1cfee9efd4f1e6U, 0xbc33dfe8fbfd11U, 0x81d41d07f502e6d9U, 0xee1eba0a2a15f69cU,
  0x312901f9d30cfce3U, 0x1510f404e2bded0aU, 0xcaa36f24daffe4e6U, 0xf9ee2f1a19e90001U,
  0x2401c805ef1430deU, 0x26f80307bce30aeaU, 0xe4f42be6e60bccfcU, 0xdeddf611132fefU,
  0x507d6f716ff1405U, 0x1a0bf12b070d1ae4U, 0x8eef5fff7f8e504U, 0xe5ee10fc0b15070bU,
  0xe8d9eaf1d5ebe4e5U, 0xfe0d1bf5011303e9U, 0x23e2290bf0fee9caU, 0x1df63f0df6edf9efU,
  0x2f1d0d35a32c1adaU, 0x16f3e10f03f6eee4U, 0x3707a9f9140319feU, 0x48e014fd20f61bfeU,
  0x41fa14253b0721e2U, 0x3919fc21fef51981U, 0x15f344e701d3ff3bU, 0xfdc0f91c37b40b42U,
  0x3cc9f3077e04c72U, 0x1eb3d51126c92c08U, 0x2b8ba93d1fe20313U, 0xf6de42fdd1d9891dU,
  0xede32fa001feaf2cU, 0xdcda25a202f1a14eU, 0x9ba7ebd6cca28d04U, 0xc4cafcc2b8c2c90eU,
  0xdae71a10b0d4dfbbU, 0xf5c41cc8c41fd8e1U, 0xe9e908022124ec38U, 0xc4cf272dff0cfe77U,
  0xe0000403c3ddfb34U, 0xfffffdacfffffdaaU, 0xffffff78fffffe86U, 0xfffffed6fffffba6U,
  0xfffffedeffffff04U, 0xfffffb8ffffff985U, 0x1b3fffffa0dU, 0xfffffb220000012cU,
  0xfffffd96ffffffbeU, 0xbfdbc6bbf82cc932U, 0xa9e00d043217b0c2U, 0xd4e91231df0bf942U,
  0xe0c3f1350f0707feU, 0x2bdbe6e5d4ef0bf5U, 0x1dbde0e041b1d0aU, 0x20dcdcdff0f410a8U,
  0xeb2cdae3edf5bfd6U, 0xf2206f5a63acd14U, 0xaca14dd27dccad1U, 0xdb2fd32ee1143b0fU,
  0x14c722c1c8281915U, 0xedfe1c11ddea4bc6U, 0x4e81ff703d90e39U, 0xd304f4e2c9baff2aU,
  0xdd2801361d11f738U, 0x2bfdee08ba18cd3fU, 0xdf0b0bfa1202180cU, 0xf91c1921e1dd04deU,
  0x80e1905090c3308U, 0xdf142dfc24fe090aU, 0xec16f1ef0207f811U, 0xe8033a1fe3e014e9U,
  0x19d808da12ed3b03U, 0xfbe0e4ce1a140638U, 0xb109d3d11106ece6U, 0xfdbed3030afed241U,
  0xb4fad9ff0f09d9d5U, 0xf390738080108faU, 0x4d8c404dffdf4ecU, 0xb2311c22f00a26f5U,
  0xe7e3cdfcf0f78112U, 0xb327c60d81d0f4fdU, 0xb3b5edd3e9f414ecU, 0xe00b12f8d3c6ea2aU,
  0xf3d935db15153112U, 0x7fd131e1dfaec1eU, 0xe9f025150922f219U, 0x20fb090414f6f8f8U,
  0xe0fee19fce082019U, 0x150cddf7e8023e12U, 0xe904de2f0108cb08U, 0x1fac08e91400d71dU,
  0xe617e62c13cee5c9U, 0xf3aaecba40f9f5deU, 0xf415ef181ed4c5dfU, 0xb51fb516e402d8U,
  0xe93ac60030ffe2d2U, 0xd9dd14ee0bf44cf9U, 0xe14d9130a13ddb5U, 0xfcd0e9e81d160dceU,
  0x260ecdfc17f7d4f2U, 0xc3ecdeb715f0def0U, 0xf1f3f80d241ef5e7U, 0xfbadf4b800c3e8fdU,
  0xf71aff0b331ff5f7U, 0xfb13ed15091d26c5U, 0xfd0a060b0a05f90aU, 0xfe2eee0cf8e605f4U,
  0x141c151d0b000213U, 0xc61701ecf1010df0U, 0x2d1a2d141c1433dcU, 0xebe902d50ae8e614U,
  0xe9041048e80c17faU, 0x102506e1f8d2f2ffU, 0xfc0deff40ff1fcf3U, 0xe822fae707fde712U,
  0xfe0e001ff8fb1104U, 0xf727d5f9ee0ad70aU, 0xd5fc102bdbfad5dcU, 0xfddbc91a040bfbcdU,
  0xfdfcd6fd0203ffddU, 0xfe051cda0fffe012U, 0xecf8f9eb12f2e114U, 0xa1b04dd04eb0805U,
  0x6fc221bfffbf70aU, 0xe9e4dbe5ea1cf4d2U, 0xf8f71815f4ff01d7U, 0xe9eff6e7efe8e6U,
  0x307092c280a280bU, 0xddcfeedc1efef9f3U, 0xd8f0fb0e0f13c5e6U, 0x101001063821e408U,
  0xe52df806f204f202U, 0x208fdf5f7ee0cdfU, 0x12f5f80904dd1b08U, 0x1103140ad0ebec04U,
  0x2af20ffedf041c10U, 0xcff31dfd39050e24U, 0xe3d929d23f1ee0fbU, 0xf8fe0a100212130fU,
  0x15f528b7e82618fcU, 0x4170518d9e027edU, 0x1de30a0781070b04U, 0x3a443a30c51dfffbU,
  0x2bf90c1ef5bf22f2U, 0x19b42e2df0f23f36U, 0xe2352f0c20e2ef32U, 0x170c0b05e5f90706U,
  0xad219cfc509ed05U, 0xd1e1e43e4382dbfU, 0xf4f40ef99cea3a25U, 0xf21f14e7aee6b5e1U,
  0xf9afece426dce829U, 0xdd23f02ffa200e01U, 0x10efd90410e1142aU, 0xeef6fef523dc20f7U,
  0xae403e511cbdb1cU, 0x201f11dddcdec3faU, 0xd826e50cb1c7ba11U, 0xd956f1eedfffd41fU,
  0xe0a14cf1736c903U, 0x299b1dead3a92bfcU, 0x2e1a1fdec5b5d5fdU, 0xefe7ecdddb1c17fdU,
  0xd224fcbaf9c31019U, 0xf91d172d0d21e92dU, 0x12cffb33a52cf4ceU, 0x4a26ac16b0e30fc8U,
  0x22c4f0e4b800f6d5U, 0xf6fed0fa10fc9751U, 0x2033e63de9ae5027U, 0x4337c4e32905d655U,
  0x211ffca0e8d1e90fU, 0x68dfa3beb3173983U, 0xe0ea1acfde49eaa9U, 0x7fc3b7cddf14fa2cU,
  0xb1511e3438d910cfU, 0xd839eceb11aee829U, 0xf4d40dfe0dfe35fbU, 0x3237e31f04f5e904U,
  0x19e2050fe6380723U, 0x2d09cefdb6222907U, 0x15d6110892161817U, 0x45f4c9f7c70de7ceU,
  0xc1ebe1e0dbf5e0e4U, 0xd22cd40fe72ec91dU, 0xe0cbd0ccfcf1e314U, 0xfd00ed07ebfa1d15U,
  0x8070a05a9e4fbU, 0xfac32bf6f60514f5U, 0xf60a0200e7e6d50cU, 0xeeabd2d7eddc0decU,
  0xf116152c14d7cb81U, 0xecf6cf0beafd2105U, 0xc8cef5df0d35eae7U, 0xddd4120cdc1b3b13U,
  0xb121afef6200de0U, 0xf9d90d1405020011U, 0x1d13faf1ead4e912U, 0xeff6150ef22ee516U,
  0x3200f0fdebf3f6cfU, 0x12321731d838210fU, 0x1ee5fcdef72eef04U, 0x28221611de1af9feU,
  0x17e01403f3052f14U, 0xf0280b48ca263705U, 0x3203f6fbbefbd1edU, 0xf92e0e0adf1cdcedU,
  0x70c0f17f41210f1U, 0x5c0ef1f0067feec0U, 0x2fb8fbe08f9d7b5U, 0x25c5d193f63d9a8cU,
  0xf6e6f3e628c7a9b6U, 0xc7f02d96e2d6dfcbU, 0x9fdd1eb668bedbdeU, 0xd8a30ac936bf143dU,
  0x8a4f471de3c1b02fU, 0x4bfc0202dce4e9f4U, 0xd12c10f0104e1a24U, 0xb19ff09d10c0d28U,
  0xf3531a110a35103cU, 0xf1b1936fca912c9U, 0xf0eb18ca2eeff9aaU, 0x15101c3ef84cdff6U,
  0xa40001e4ca216008U, 0x32234e2800e5ea1fU, 0x4450fa00d61f0ce2U, 0x211ce7e205b734f8U,
  0x11f12f12dafe0f32U, 0x10d52524e4f330f4U, 0xf7e8bcbe06d0fff9U, 0x1210071dc13532d4U,
  0x2f3ebbf01e70215U, 0x13020c00082334c6U, 0x2b0feb24e3f9d605U, 0xa35f52b1c0bf4ffU,
  0x205b533f1c10703U, 0xf931f5e819e5e61cU, 0xeae7c509fa003d12U, 0x19ebd0e6ef3e2438U,
  0xdc0a03251ddbdd09U, 0xbdecce2c3ce9cd32U, 0xb93301013d0afdffU, 0xb0fa03e6f8f6ea06U,
  0xe216ee212a1c0a1eU, 0xea25e1d12acd251fU, 0x37e0f53801f5fb2eU, 0xf6037ff1f6d4362fU,
  0x39eeee06b7e2ee28U, 0x707f5391629f709U, 0xec1413f3fd29f824U, 0xf417f238e92a27cbU,
  0xf607f7f93d18392bU, 0x340df8fcfff8eaffU, 0xe2d911e2dff1093aU, 0x251113c1d606b10aU,
  0x6d7f50cccbd2620U, 0xaf6ed0ee308f6fdU, 0xe4fff6f7e221f2U, 0xfefe2fb0b0001ffU,
  0xf01afbd634fbe602U, 0xfcd2d409023fefU, 0x10d20e7dc2c070fU, 0x15d802e50feefb00U,
  0xf1dbfc0dd0ccc0f9U, 0xcfc5fffc08dfc809U, 0xf0ebf4edf9caf109U, 0xfe1b0f2703001829U,
  0xf3f5039313e206f4U, 0x1107fe231cfafd00U, 0x1123eedcdb46c500U, 0x37ec0b21e207f7dcU,
  0x100ff3e2200dc0c1U, 0xe419c621f62cc525U, 0x9a06eae01b22d7eaU, 0xd601d03c442f2818U,
  0xdaef5417221f5037U, 0x7290d26f9e11030U, 0x5794085695fcfb16U, 0xf42737d3a608ea8aU,
  0x4d8bdd1504170509U, 0xc51be533424fc6U, 0xcc5217f344c801a7U, 0xfef6e2f11d3624d0U,
  0xc41d21cdff270103U, 0x3be8edeb9b10f8e8U, 0xecbec8da17f9eb3dU, 0x1a2e12f8fc37cb3bU,
  0x6c2eec0f2deab18U, 0xc11822ee13d5e0cfU, 0x340de41dfae70edbU, 0xdcd5e3f9feadfebbU,
  0xff8d07cc16f4f735U, 0xfa1a2015ca06d7e4U, 0xe5f7f20d6de92bebU, 0xef61c12beae97513U,
  0xe4f52b2c0113fe4aU, 0xf60a18d0d5f50cb7U, 0x5f00038d3a9454bU, 0x1127e6f3c9e3f0dcU,
  0xcafcb80003841630U, 0x1922bce1e9f2f30fU, 0xb92ff5026b81f321U, 0xf407d90211bc0dd9U,
  0xf001701e8033458U, 0xfaefe6e0142b1254U, 0xe8df0dcb11f1f20bU, 0x1bd90ceef434e316U,
  0x6c8f1b7ece9e8f5U, 0xd0212ceecd80907U, 0xdef4f4ac12fcd92aU, 0xedfc1d06eff605e2U,
  0x1e2308ef00e9df26U, 0x4faf01fdbdd0ed2U, 0x2ae3fb03d81d1ffbU, 0x24ed2a18e12b0cfdU,
  0xd816fafe12db0906U, 0x9ebf2070ef40605U, 0xd20ceee6c60dfe0aU, 0xf6182923fdf8fc41U,
  0xfe03e1f998f7001aU, 0xf0821e7a8df070eU, 0x4fede521d81b3be4U, 0x2e5f3c3f40c0118U,
  0x202aecf025f41ab6U, 0x170fd709072df8c4U, 0x3aefe5d4eff7c9baU, 0x4201c5d6f00c2a0aU,
  0x17f59feaf1e5d4f1U, 0xd3260033d227041eU, 0x14c30adee91c253aU, 0x10d0e06efef0333U,
  0xfffa14fcece727fdU, 0x17d1f1f5c9be0922U, 0xb22f0c1af712e9f9U, 0x23e704d3130df10eU,
  0x81232d205216f0c2U, 0x2801eee1013b1aedU, 0x35ff0a11ea271502U, 0x23da0806da281a07U,
  0x1430fbe8e028fefaU, 0x1c31f232dd0b3de3U, 0xa9f3fdf8110a2becU, 0x1311aafaf91827ebU,
  0xaf418e91ce3d2e0U, 0xdc0d0fffeee8d80cU, 0x11f00f2ea3b20e6U, 0xa2c2f50c90b1e04U,
  0x1b8100e7cc03050dU, 0x2322e4dafd26031U, 0xde2d0de0cc9a20e7U, 0x120bde1a0c080cf1U,
  0xdc1421ea12120df2U, 0x25f0142118e100ddU, 0xd4cae1e1bf0a15U, 0xe9000b23aacb16eaU,
  0x11c2ff07e7df31ecU, 0xd1e359f4d4b2e9f1U, 0x2027070b2ccb1b02U, 0xb5b91ecb19f6cc0cU,
  0xed4511fe252307f9U, 0x17ffd69ddeb8be04U, 0x1926044804fbfff9U, 0xfedef3c814e7b126U,
  0xdf1bd64cf6ce1be7U, 0xf6e8dabb4810f2f0U, 0xfbf0a12ff1c0d9d6U, 0x95d5d9cc2109d1edU,
  0x3df5a2c2d9c3b4baU, 0xbac9f5d10524c358U, 0xe9f2d790fd28f414U, 0x22f5c7cafb30c0fdU,
  0x16d9ddc7cbfedd0bU, 0x1ceae0ceedbadc02U, 0x122910babffbde24U, 0x17f524e00f07fa28U,
  0xe0fe36bf01fdc6dbU, 0x70c1571a233e718U, 0x1ed105c0ce2d2422U, 0x9ef1855a0f12be7U,
  0x22f27fef7fa1ee4U, 0x1cfd22111ef94107U, 0xbe0c2fdad3f70d05U, 0xd9fd103a1415f959U,
  0xb3fcdfc6b0e0ec2eU, 0x6afb14e896120affU, 0x4eeed82dd0065a10U, 0xce82ea7e0f6d71dU,
  0x4dd60a25f0bb2af6U, 0x10c0ed011d0008dfU, 0x2823e5efecfbd2d3U, 0x1aafd1ee134548d9U,
  0xf4feeda9e1ebbdceU, 0xa370419f13e0c21U, 0xcfdef8dc28e90019U, 0x51f110cbe171e00U,
  0xecbb07fc03f9e22eU, 0x350713fff8b038f2U, 0xda1f250b0da70816U, 0xfaac27b919ec0032U,
  0xdf3f1d16330ad281U, 0x401dc9639ce2fdfU, 0xdbf3f602f4fdf9e4U, 0xeed205b1c20e2529U,
  0x2b330e3f29b4ebeaU, 0xeac4f3ccd5c71f0bU, 0xc13ae8112638e3a9U, 0xd9f2e1f9279c40U,
  0xdde6f34761cbd9ffU, 0xf7cacd0ae981e33dU, 0xe0ea170f0832fc07U, 0x2ea15dcd092e147U,
  0x332ed0481b0bd32bU, 0x22f9d0f0f3a81cd0U, 0xeddefaf842fd1c02U, 0xcf3cd2f8113c9dd5U,
  0xfdc5dd1f6919ed1dU, 0xfb0e1f0f2aef1267U, 0xa13d00231931ee32U, 0x1640fb0e2692f832U,
  0x95ce0bd7c315d809U, 0xbd031c0bfafeed62U, 0xb2af14d6f219f326U, 0xf02deb45ea12f21aU,
  0xcddf1e176b080c38U, 0x11e340dc241469fcU, 0x1931fb1748f001ffU, 0xfdcf34cbffd51405U,
  0x1d041b3fde0a920bU, 0xa2a301fc24ddf829U, 0xd5cefbdc0432020cU, 0xdb12fb61e43f3d0aU,
  0xcef3e9dc10daeb26U, 0xf90bf5d43213abd8U, 0x9f24f5005e19fe0bU, 0xb40bc60812f504fbU,
  0xbe4ad9192013342bU, 0xad27f0f529a6fe3fU, 0xe106035834dc040cU, 0xd82d25e0ff8b2433U,
  0x491ff75bf3dc1024U, 0xdfdfa42b1256e554U, 0xc805e4e7171bfc09U, 0x19e39925fa053328U,
  0x9dea19f32e2ef114U, 0x32f6e710f3abee36U, 0x2e5063306f6445aU, 0x6121bcfe6eec62bU,
  0x25e9ec0d06e1577fU, 0x1700083be11c0ef0U, 0x82708c4fd000be4U, 0x8ee0b15e2f948e8U,
  0xde080d9dfa25f514U, 0x11fc19d32d0aeb1aU, 0xd8f1fabce4540a2cU, 0xe4e1e807e0fb14efU,
  0x3ae8c8d5d8e5e6e9U, 0x34dbeafbf0d1e817U, 0xc6f7dbf90401ecd8U, 0xfc0f62323e80c34U,
  0xc720f5a4ebe7dc06U, 0x150511f60d37f107U, 0xcbdd1bcc2700d0fcU, 0x2410f94409185907U,
  0xbeded8b053f0b5b9U, 0x81e8e5200b2c081cU, 0xf9e714f1f5dd161aU, 0x8f10b0eccddfc1eU,
  0x60dd3e3ef2afafcU, 0x15f6cafa1e13ff05U, 0xf002e2ec01241502U, 0x71cb20714f91e09U,
  0xc80cff022addf2c3U, 0xedf2fc150918d0d2U, 0xfdbbdfd2b3d5e8f9U, 0xefe90afb93202214U,
  0xe3f60bfed7cdd5f7U, 0xbda2ef718091626U, 0xd6553713f30bf4ffU, 0xdab806e905fe14eaU,
  0xd42df1f10c0cd1f0U, 0xfaf4dcf2b8e01cf0U, 0x3b60302d9ccf6ebU, 0xf1fc0beedb331e2fU,
  0x3081214fdf8f616U, 0x12e40fc3f90c19faU, 0xc25fd1bd232c311U, 0x1d8eadf01fdea12U,
  0xf403f30306cdca8bU, 0x1b3bd9f7dcf4c9d1U, 0x10e8fe20d4e03b07U, 0x3f1502f7db11f9c6U,
  0xf002a2008e32908U, 0x2a0ef9fcf62816feU, 0x1509ff2a030608fcU, 0xf5f1ec01f901fa14U,
  0xf90000f61bfbfce6U, 0x8f89150f82e88f8U, 0xc04de3d50d09b708U, 0xbfcbafc384ffcc3U,
  0xf210db12fcf9d0ecU, 0xfe25dd2e13d5f0acU, 0xa5f72a261dcae4cfU, 0x2211bb01e8f3cd16U,
  0xbc0e347f1abe3326U, 0x2215e7e72f08eddbU, 0x2ffd6e53dfe0eeaU, 0x4de305e44e49d6fdU,
  0xb66e91c0f4bf8fdU, 0xe8bff919280bea13U, 0xf4ea51f3080d1de3U, 0x269640e1f709de55U,
  0xa527131018a93915U, 0x1a4d8c42db5f6f6U, 0xf15b11701925db0bU, 0xe9a503db35220f08U,
  0x9f3210171ef7e4c0U, 0xf098ff09e92cdd00U, 0xd100c90526112113U, 0x23ac3026101a3c1dU,
  0xf713e4bbe5cf4301U, 0xcacac8245c12f256U, 0x9c49b7f21dd3ffcbU, 0xf3dfb31437eced2cU,
  0xc11c2cdf0b35fdf1U, 0xba2c7b4f1e71402U, 0x3500ff04032a022aU, 0x76a2d9ded02fed18U,
  0xed1a245a12dfcea1U, 0xf6e400d87c25b540U, 0xf5de0724200bce15U, 0xff14e9f524130b14U,
  0x28cb3adcaed4ea2bU, 0xf7d51715de2729cfU, 0xfdf3030fb2dbcd12U, 0xbe72f0afa0f0cd7U,
  0xdde4c1e7caeee1f5U, 0x20180a180d063822U, 0x8f41202ea182de4U, 0xb42d10501fa28a5U,
  0xf7e52d04fce31dccU, 0xf319f8eed71fc8a8U, 0x3bebdc25fee0ddfdU, 0xfaf52efdd2dddbfcU,
  0x2905b935eecef02fU, 0x7a7f2f40cdef957U, 0xe604251b023619e4U, 0x23e828ec16efb201U,
  0xcf48d4e70ef607efU, 0x311ce1f8e233f0d4U, 0x1d02d5ef31d7f5edU, 0x719202ad4d7f1e3U,
  0x15ebc4f3d6351127U, 0xb4c30fe039ff134cU, 0xc8d9f28f7f02d2e2U, 0xd61ce9fe2bdff574U,
  0xd8c81eae1c130be7U, 0xdd0e0816cdddeb12U, 0xe4f30c04de5bec29U, 0x1960167fb9fc1504U,
  0x4f2004401072a24U, 0xb4fd402530023594U, 0x186a0a5213cf20bfU, 0xeff52b0b2aab61fbU,
  0x144b2148de01101eU, 0xe818f2d70bfdf3c4U, 0xfc41d85416f4fd0eU, 0xc13b02d2d9aadfb8U,
  0x310feb02fc3febeaU, 0x1c1f0101f3f40fb4U, 0x2021c0dbe6f32cefU, 0xf31b0a01fcc8f4f1U,
  0x5e2f20b0a2a2d2eU, 0xf533c2e0e3ecf852U, 0x111ae643252d2236U, 0xfb27cd20e6d90d26U,
  0xcc6e7d407001815U, 0xb31ecfe7cf29ec03U, 0x81eae9d3ff00e125U, 0xe0dd24012316d116U,
  0xabf8042a2239f916U, 0xfbd7f11be81afaU, 0x1cef20be16e9f8e1U, 0xd710e20800f222f0U,
  0xf4df33ef04c2f0fbU, 0xe693d7f63e0bf211U, 0xeae429060608a896U, 0xa5f32e2122fd1e03U,
  0x5250c0311f7f7e4U, 0x83032ef3f8ea10ffU, 0xfad504e1a21ed63bU, 0xa0da4cfdcfd5bb14U,
  0x15ca07c6ac882032U, 0xa8dadefee3e4f832U, 0xf8b908e40a140a15U, 0xeef3e4faf1e0f611U,
  0x1ccfefe3eb0b0504U, 0xbee00e9f4dbf40cU, 0x20fdecc7da10fe1bU, 0xf8050d00ec0d1600U,
  0x702f8cbd7ee0af1U, 0xccfef715e01ae213U, 0xf4d5dfc5edfadff5U, 0xe2eb1104d41a1810U,
  0xe9e5ee02e2e8030eU, 0xf0e521ee00e5221fU, 0xfefb1cf4e9fcea1cU, 0xf2ee0402edeef5f2U,
  0x8fad915e5dcc924U, 0x3b0ee321810b1becU, 0x7cafb19053627feU, 0x11dc1901f11d1cebU,
  0xf51f0a0dfa1f31ddU, 0x1ec3e6f821f925f5U, 0xff1701e8fe1ad0d4U, 0x12dae8ed2331fbfeU,
  0x5fcc6061bdcd8dbU, 0x21550c2da9180716U, 0x29ee1a0602130709U, 0x131111e2c8ea06dfU,
  0x23032001e3d62c20U, 0x6db0edafdeaeeffU, 0xd32d041d20d1d1f5U, 0xf6d3f6b127ed00e7U,
  0xd90de6e33b1703f6U, 0xf7c0c6f7405bc1ecU, 0x8d4487e63d1fc4d5U, 0xcbade6fd2803ebf3U,
  0x9128d10f5fb8c0dbU, 0xb12000e33bb41e14U, 0xc01fa2449d0f8feU, 0xb63a75d2ec8d6927U,
  0x26efe85803faf728U, 0x405d80ccd2a2010U, 0xcb24f0a80b511bedU, 0xf82e030eb61c17e5U,
  0xbee810e7533c3831U, 0x4dc3f8f3e0ea21e7U, 0xda05430127f72a50U, 0x30419d8de01ea4dU,
  0x88c21d4d7df7f0dU, 0x58352d1be3ed1e0aU, 0x21173ac8fde8fe0cU, 0x1129cf222ce7e9ccU,
  0x9361b384122e608U, 0xef0a0d0a3a30f6d4U, 0xfd07eaf3d50930faU, 0x1331c0f3e52fe2d7U,
  0x4cc207f9f335d340U, 0x2b143ccb14ff239fU, 0x2106fd1be5b90a22U, 0xd0718044cccccefU,
  0xf70001fad8becde7U, 0xc6ee0607e30de6deU, 0xd5110cf03d2edaf7U, 0x47240b4208362cfeU,
  0xe017f7b4fe22e3e1U, 0x39f5171326d93d11U, 0xe1e42af2f01aef1eU, 0xe9fe28ff2c14f903U,
  0x4561fe5ddd8fdf7U, 0xf1fe1313f8d310dcU, 0x8edfcdfcaf406f7U, 0xdc120922e44ed2f3U,
  0x14e8e7ddeafb03fdU, 0xd7d8380e42fbf718U, 0xedf8fbfdd8fce913U, 0xd6c4e1f21b48f7f4U,
  0x30de9d515f9e314U, 0xf6f717f6f0194b9fU, 0xfbb606bcea38cadfU, 0x3afb4029c8f622b9U,
  0xf7960092e5e6a0dcU, 0x4a3d270cd6110bd7U, 0x29e6f20799201902U, 0x312b0ce7aeeafba5U,
  0x21b7e725c8cc11edU, 0x718ee0cdf0ddf81U, 0xfee7bbebe61807b6U, 0xfd19d3090010f4a4U,
  0x25171f2f053bd8ddU, 0x311ee8ffcc36d60aU, 0x280d36b7b33a562bU, 0x4a34e0209d000dacU,
  0x9e2260dead31cfdU, 0x1229d7f6a41edf03U, 0xe3e0348c0f9250cU, 0x311affddfd12f23dU,
  0x73647534c022331U, 0x17d8c9d71948c136U, 0xacecfe1d29fed4f3U, 0xf9eed8ffe245df08U,
  0xc8cd08f11e02f9c2U, 0x20cc9e2d5ea1b17U, 0xa6edfae8e811ee21U, 0x1cc7ccd524d604f6U,
  0x9e01ebe8eebd81c8U, 0x1510ea1dda32be17U, 0xbe223e411120cc3U, 0x331b1423abe8451bU,
  0xe7e62cdde71edde8U, 0xe7e91912dff84eecU, 0xa90537e3f6021218U, 0xdce11415e0fa00eeU,
  0xd73336090c30e412U, 0x2af131d08f40154U, 0xcf27fd11142e2a00U, 0x16ff0030110e2517U,
  0xfd1f2cf304d90bf5U, 0xf8fc23183d31e1ecU, 0xd528bdeceeeaf8f5U, 0x21d041ae50e28c1U,
  0x38b804ae1b13dd0eU, 0xe70623004dfe2637U, 0xf5edd8e430fbf608U, 0xe9f3eb010d09f314U,
  0xc0ead1ea25f40702U, 0x2730f5f7f50a22ffU, 0xf4e7ecf7f4060b2cU, 0xe8361f3ae12d33d4U,
  0xf7f2dcfeeda41fU, 0x3b1907edc4ccf9cbU, 0x24e8ecdbe708f40aU, 0x261a0809cc2d2ddeU,
  0xdfe14f9c2d726fbU, 0x425f606b9e93900U, 0x3dd82715d609f711U, 0xd1f20b3bd8f12181U,
  0x7f1e0d0ae18ff02U, 0x4a24f9debbf2cc29U, 0x4d1d5ee06dc001aU, 0xf720efe6f708d318U,
  0xed0b000b0e021c2cU, 0xf60befeefb20fddfU, 0x13ddf407c3ed1ee9U, 0xeffc282ec5ccd6ddU,
  0x1df7f941d4d103c3U, 0x170cfbf8e4f4eaedU, 0x32b84f1018170d08U, 0x8fafe0b15da0106U,
  0xe1afb0ed5e314eaU, 0x19f6e02ff22a18dbU, 0x22142207b3d7caf1U, 0x22042723acd6e905U,
  0x1ee5276ab2111d0eU, 0x4171d0c13f84ac4U, 0x1dc6fc02f4300f22U, 0x2c30e5d7ca03c9U,
  0x45ac1ee5ace4100cU, 0xfce01ef68c0a07efU, 0x2ece1bea9b15dceaU, 0x19212a0db1f1f1d7U,
  0x3a9d022be80d402aU, 0xc211f5dae3e1d31fU, 0xce1f63e48001831U, 0xed48dde719eaf650U,
  0x30c716fbd50c363bU, 0xeb0be515de050ad6U, 0xfcf2d520cfbe01e6U, 0x111f070ce60827a0U,
  0xfc0c04bceaf8d2c5U, 0x280aecf3ea20fa54U, 0xf5ba04de10240945U, 0xa38d0dfdae3c301U,
  0xdbaa0810e7132a2cU, 0xff1914dcdf1ad1c7U, 0x3e08df0227ee19c9U, 0xf3fcc807e6fe09d9U,
  0xde20361de8272e2fU, 0x31a1dfd61f05c447U, 0x8df219d42bf9e8e8U, 0x35b8edf63e28d623U,
  0xd61921bffdd5ed15U, 0x290afee2fefec008U, 0x612f1ebd2f4f5f8U, 0x226039340506081fU,
  0x29c7e9d49c2debffU, 0xb4bd37eb31fb2320U, 0xadbc23a829cebee4U, 0xbdf62f2219232c1cU,
  0xefc50394df1fc9e6U, 0xdefbe639e2f5ed19U, 0xbce3f007a008b1e6U, 0x4149fd7fc73660b5U,
  0xebda0df9e202980bU, 0xc50a0714f8c6e5cdU, 0x42cc32cfe3d613feU, 0xcaf501d912f81ae8U,
  0xe70df2eb1ff11422U, 0xf3fc0c0d1218db25U, 0x21213220bff713feU, 0xeaf46915d817444bU,
  0x16e21bead3f21608U, 0xbfe9fff723ff08d4U, 0x17efe4e948d10315U, 0xd5ff13fa3a46083aU,
  0x10c1e1026d33138U, 0xa33e6e6f5de94e5U, 0x3f04e717bff5182aU, 0x5452ed8b7f6ae81U,
  0x5ca9fe349ab0f0f5U, 0xec12df27c11bd1ccU, 0xe82727f62ed73fcfU, 0xed0df413010b35ebU,
  0xf61d2708eb2a1837U, 0x1608d60bf7b8cdfdU, 0xeb09ced618210d14U, 0xf9469ee804f6b3b3U,
  0x15aabe25f9ebeeb0U, 0xf2fd070efcdaeeecU, 0x2b1c1b22f7e1e2e3U, 0x31ed0fe9f5f7f8e2U,
  0x2608e70713f7fde3U, 0xeae8e2d2fee8edffU, 0xd339dd10251dc9f4U, 0xc0c9b7c40dc80be7U,
  0xb01500d55e1bf4fcU, 0xf70ad8bdf3ef08f5U, 0xcbe0d9e4f225f907U, 0x19b1f2a716abc3cfU,
  0xc319c7fe12ebf724U, 0xdb0302021af7dfe6U, 0x80429f442e5d82bU, 0xfcfcc90925ec127fU,
  0xde10293cfbdd0016U, 0xc7ebad270d26f8ffU, 0xc827c517e72ab6e5U, 0xe9f0ff06d6f2ea1fU,
  0xea01d245143610ecU, 0xffc6dbe414e0222dU, 0xf4e81ac90532160cU, 0x1fc3b612474e01c4U,
  0x4eac6f81e0bfa19U, 0xd4f9e94c0c291cf9U, 0xde090b1205e7bbdfU, 0xeee52cfc133a38f5U,
  0xf8f5002ee9ee1cf2U, 0xd4c1ffe90aef21dfU, 0xf10cf1f034031600U, 0xc4e0f4a720f5e0f1U,
  0xe14cef086b0c0eddU, 0x6122737d52924caU, 0xe090459db154312U, 0x15151dfad91d130aU,
  0x1012413206241a17U, 0xdac1071d400a1160U, 0x2a0a4f0aeb47f4dcU, 0xdbd804cd24031e0dU,
  0xf3ed19e63ef50fc9U, 0xe6b3c1bafcf3a7dcU, 0x1432f3a53102ea21U, 0x320600a90f0713f3U,
  0xa19c21f6f5e1f629U, 0xc4e02fcbdcfac12fU, 0x1dba20eedba6cad9U, 0x2c1a0eb7e816d7d8U,
  0xe2c3c016d62ef7b4U, 0xe5eee4d1a50cfbc7U, 0xcb0b058216ed0a06U, 0xafa7c3a90ea0e8baU,
  0x30ffad81bab3c331U, 0xa6b8d712f724c61cU, 0xc13ebd8330fc21dU, 0xb3e60316e819a4deU,
  0xd237c506cabc32b3U, 0x9ea01214b808f9eaU, 0xcb0909ad2aabf5a8U, 0x27d73034acd848ffU,
  0x331a9dc0e8c82adbU, 0xe7f904b607062e4bU, 0x7df3aea090420d8U, 0xf1e3a3f3e9bd964fU,
  0x38fac3e2c304abe9U, 0xc7b197ad05ff19f8U, 0xb6faa13d5214c012U, 0x1ec7052c0bbde0a7U,
  0xe6d0aca7e3f0c7f5U, 0x25aee1ae34af0219U, 0x33ce020025d40cdbU, 0x132d0440f1bdfb12U,
  0xce7c7f43cb716b8U, 0x2cb01fb7b278161U, 0xfbb2fdfe1de6a4f2U, 0x22a4ad2407231223U,
  0xf4ca3ac2e5e2c324U, 0x16a8d1fce2330a09U, 0xe7ce18eba2d2edddU, 0xda10207f329d8ffU,
  0xf9e1dbd7da4510faU, 0xf3e9232d10570006U, 0x1ddd2625fb33fde1U, 0xfd1cf4292c47261fU,
  0x31ca250ceec004d4U, 0xaee90ce4e802fc92U, 0xdbee301d17b68bebU, 0xe5df04b4f1db55bdU,
  0xc1f8de121cffd7f8U, 0x1714ffe760e1a30eU, 0xf61928473c474cf7U, 0x12fb0fd8f225eb2aU,
  0x1208fb07d60b42aeU, 0xec042a09d7ce3d1aU, 0x2d261a0721c607e6U, 0xfbda64e51dbc040eU,
  0x3a320d0c3e276511U, 0xe100e1ed42df1d5bU, 0x94eef8a75c75f207U, 0x2ef607f6f10b2936U,
  0xefcf1bbae6394302U, 0xf6230de1d415070bU, 0x6e32d38b3cb0825U, 0xfd35240de1c4e612U,
  0xeb17e837d0f31b0eU, 0xe417c2063d40a421U, 0x814cb20320e8d6d6U, 0xc8eae3e3e5f512f4U,
  0xd423ecfa45e11606U, 0xa91615d63a862ae4U, 0xf612070b59defae4U, 0xc44635e9dfa9f802U,
  0x25240a4c4904f723U, 0x1c03ff35174cf0e4U, 0xde2b11a3203fe219U, 0x26020a0cde0ef4e0U,
  0xd2fb09e63564212cU, 0x141908030fd30011U, 0xccd433fc0ef11e2eU, 0x151e39f8c50abe5eU,
  0xead60a06e2c61625U, 0x17fe18fcde02e9edU, 0xf11ef30207e51bd3U, 0xf8ec0020fcfe1301U,
  0xcf54310515fab4c1U, 0x2533c1fcfb04ee12U, 0x11c8f916dc2b1714U, 0x222c05050912f1feU,
  0x20ccf0fbafe90405U, 0xaff1113eb0ef61cU, 0xf7d8e0c70ff9260cU, 0x2af60c15d20c2619U,
  0xe709dae1cbf51edbU, 0xc0118ecfdccf1d3U, 0xd51634efde28f4e6U, 0x6bd73601d0fa0bfdU,
  0xfc0ff8d42ce5dcc1U, 0x192af4dadfdc2fdfU, 0x3f08d2e3cbd32106U, 0x813d801b0f8efddU,
  0x22e2f5e2fdddfe04U, 0x131c0efffaf70af8U, 0x2a01d4dafbf9e4fbU, 0x2df2b32cf91c0ce5U,
  0xf5efddcb320d0de7U, 0xf4ffe1b8ef01f4f0U, 0xf31ffc10f0dd181bU, 0x4fa06de0017c30fU,
  0xf231b02e4d61b00U, 0xd2fff1eb0be61c24U, 0xe1932eff7de0310U, 0xf10ff9fb0738eeU,
  0xf718130cf4f8048cU, 0xd902010027ece30aU, 0xf4e30628edfde4e6U, 0xdc04fbf720fde4e7U,
  0x1bdf12fb02ebe50eU, 0x8ef1c0504ea30ebU, 0x1df921f2e6e80719U, 0x7d230f8d5f6e4e1U,
  0x6f40c1806eb1ff3U, 0x930e5180c460de1U, 0x141c0efeec3d0e25U, 0xf3b1ce8dfd919edU,
  0x103070df2dc390dU, 0xdef922bdded1edf4U, 0x3cfd0201d6fb2707U, 0x10c10b81dfe1badbU,
  0x2cf50630f1d900dcU, 0xaaf3fcefbea7e408U, 0xb1422c111fb22a9bU, 0xe3aafe002eee18e2U,
  0x29d3fec93912c2b9U, 0xf614c91b39120eeeU, 0xf98911213189bdc4U, 0xa302c827d481e2c2U,
  0x20b1143cf7451511U, 0x9797e0f801b22eeaU, 0xd4dafadbcebfec9aU, 0x9c31aef7b5c1e19aU,
  0xa1e30538a3d93719U, 0xea1b18ef8bccbf42U, 0xf1a2dc0caaa93a18U, 0xcf2c2aad92260df4U,
  0xb6a509dcea35093fU, 0x25bca6c4aecb34fbU, 0x8de3221807a1f6fbU, 0xafd6e205f5e4e3aaU,
  0x4006bd9c0f9a922bU, 0xc4bded2a2a89c50dU, 0xb5f3f3a798aebfcfU, 0xe3b931b7be12d3b4U,
  0xf0ca2a1109f3139fU, 0x140aea0adbf5e90eU, 0xc100191facdeacdcU, 0xc3b01e26eb21c6caU,
  0xd8b69bebb626d41eU, 0xb1fb13ed860629fbU, 0xad9808d1ae45c62dU, 0x92dd1a08ff590fdU,
  0xfc22d2e0f698f3d8U, 0x30253a069c1603c2U, 0xe6e0afb0fa45bf81U, 0x697cfed2aaff7a1U,
  0xb30bf7db9f00abbcU, 0x19f5029d37d750ebU, 0x15ccb1f9dc89d42dU, 0x819b094e000703adU,
  0xa9ffa4a9bacf46f2U, 0x9e2abbad1ee8f91dU, 0xda380101c3299519U, 0x37d717c0bf3a0aacU,
  0xbf97a7f9bdd03f06U, 0x3a2109a7c4f91e14U, 0x9e80cdbf9eeb81bU, 0x20b6a4fa343aedc9U,
  0x5902a4fce81291ddU, 0xc83ca6e0df0fc812U, 0x2c11611fe2c701ecU, 0xe1eb46bf9a5f5900U,
  0x2fcca8abe9e6b6b5U, 0x9f011a3eef26aba2U, 0x8cebe22af3ce89aU, 0x5d11fbe19b1e4c8U,
  0x168e03dfd41cb922U, 0x3ceb18c4433fb732U, 0xf7eb0c48fed9f5abU, 0xcbdb14acb9c01ffaU,
  0xb2fe0ed21fd63ed3U, 0x1c8c6b92337c5bcU, 0x3a98b2b703591607U, 0xfdbdc528fa197fdU,
  0x8b2f10fc1f0b5ebU, 0xb11111c1e0a130bU, 0x46ff120edcffeef1U, 0xdd0af91dec152afaU,
  0x1ad8ec04d3d52d08U, 0x11c2b1be61f02c6U, 0x3cd6b1eac8c1eb0fU, 0xed2cf70cb2fff0a1U,
  0x40f2ce18c3072ac2U, 0x10ec23db4bbb0ec9U, 0xedde3ffe4be13c5U, 0xf9daf5ff342bbc81U,
  0xf5ead2d8f904220aU, 0xea3a051af92fd8fdU, 0x14f6df1e58152d13U, 0xec54f23815103026U,
  0x11f70100f62b226cU, 0xce3107f62937c1feU, 0xebda07e72c0c2c11U, 0xf33115cf25becef5U,
  0xba9c6e93214f20dU, 0xf913f40a00fdefe0U, 0xe4e817dd7cee0cfeU, 0xd60025ed08fc2ac9U,
  0xa0214f72afddc29U, 0xf1b017ce2dd2f5edU, 0xdfc40ff1fe19e913U, 0xe8c9fa0542d6e5f9U,
  0xe505d40d2400c804U, 0x131f17e50fd1d1f9U, 0x303ca0045f21009U, 0xb931de1617cdf2dcU,
  0xed30709d013054bU, 0x442ad260a2dcfa9fU, 0x26df950da9ffd4c7U, 0xf814cdd9d1def3d2U,
  0x38d8ef1feef71d06U, 0x1b11ed069fa90b1dU, 0x20d4d806dff13df9U, 0x1119d8baf5b6b3ffU,
  0xed440d0b07f714d3U, 0xf6282711cfe4f7c5U, 0x1fcadad2e9cd09e7U, 0xd02a4030f70605baU,
  0x2ff28e1f9d82fd3U, 0xcfc116ead9b6e531U, 0xe09cedfefdf03a20U, 0x7fc05d601ecd97fU,
  0x1a10d11f2afb0b4cU, 0xa192d1c3d45be1eU, 0x4d3fb12be17ad01U, 0xdf1b2519df15eadbU,
  0x2a0925f819f60d08U, 0xee031924bebdf6e5U, 0xef150ce2e0d50bc3U, 0xdcb2fa092422294cU,
  0xae20f80bcfd0efedU, 0x3123f707f33236d3U, 0xed0ef9f3f60eda20U, 0xd3f81b07bee40ce0U,
  0xf1ea16ede0d83118U, 0x3be02eb2a2d8af10U, 0xb0911171fd8e931U, 0xe5c7f4d13830c302U,
  0xf0f1d90dd2e1d0c0U, 0xea0132eb23bc2328U, 0xe02101efe7bb0ddfU, 0x1e26e2031f28b20eU,
  0x3b04e4c0a30b06ddU, 0x32facff4ee0f26f8U, 0xf346e0ff12f7cfdcU, 0xcde0810e30e422d5U,
  0xcd36e9fde31ca3caU, 0xed1be60ab802d8e3U, 0x39c2bfacb0df1d37U, 0xcbffec9cadff1f9U,
  0xe71c05fdc624f210U, 0xed208d2160be224U, 0x120406ffe815e902U, 0xdb0e2ac5e8ca0034U,
  0x22ffe807e91c500dU, 0xff1ecc0b3f10506U, 0x27f41ff0b9ba06cfU, 0x2ac4e9c50411e736U,
  0xfa20501dec0113f7U, 0x917f2f6f7f7f100U, 0x1600e5d8cdf5e9faU, 0xf32df0ea5270fc7U,
  0x8ccf30df8190de8U, 0xf24539f8120d3b0aU, 0x15ba340b1d18061fU, 0xe00949f5de2e051dU,
  0x28de1800daf02621U, 0x11fbfc0e98fbfafeU, 0x3ad60de5c7d5fce6U, 0x2630294702311838U,
  0x243a2e0feffe1101U, 0xbde88adcf0b6ebe7U, 0xe4cfd70ac1ffe9c8U, 0xd7ed84087f20d6f1U,
  0xa40adbc232d3ddf0U, 0xc3f591f230372acaU, 0xce8082419d9f8bdU, 0xf6174718e02634U,
  0xeefaf42c2cd0eed7U, 0xdc0dd23e0b0fded7U, 0xfcd0d4ceb2cbd4ebU, 0x3b0009cc2bb381a6U,
  0xf82a0c0f40ded9efU, 0xbbe2faa400fed8cbU, 0xbcfacae243fe39c5U, 0x4b029b909d7e6f1U,
  0x1011f621f3fc3919U, 0xf2bc0de9d6f11a0fU, 0xa6ad3bf2e3d0fb04U, 0xff1314c91513eb04U,
  0xbee0e20940da47bbU, 0xde05c21e1708c0d0U, 0xf09c7f7cbdcfafaU, 0xd0d4f6fad9f0d201U,
  0xe4c6a80d06c1e61dU, 0xe40a0d0d3adeed13U, 0x11fd0b73321ebb03U, 0xfd9fce3f61f0f1bU,
  0x13e6e23d12dce3faU, 0xe5fd8be21906000dU, 0x12f9d9130aceebf7U, 0x5003f4fad71cdf03U,
  0xfee9e8eb2ac71410U, 0xb708b6e80711816dU, 0xf3fa0d12183fee31U, 0xfe0f10fbfaf4d4e7U,
  0xedb207d7101f15fbU, 0x2206d80defdf0209U, 0xf4c723bef0fa0512U, 0xea2c110616fc0e2eU,
  0x12092c0eb5fd3347U, 0xe924e3372b5ff926U, 0xc7e71fe20236f025U, 0x14f5df30002f62faU,
  0x306fbdff930cc1fU, 0xf0f9fbfd2218400fU, 0xf1e72eedb809d43bU, 0xbc026f1faece5f9U,
  0x19d01200d69e06feU, 0x3bd4da34020725f7U, 0xe0eae9f42a2607dfU, 0x1efb024f184732f1U,
  0x142118dbf907f7ceU, 0xf4f115e40bff29e5U, 0x31afdd5c3001f2cU, 0xe9c53d16fce60ceaU,
  0x18e3e7ea24fcd605U, 0xeef6e70a1fddfd26U, 0xbb24d9f222ee08d6U, 0x5f6d2053e0d131aU,
  0xcd4801191a1aecd8U, 0x2cfee0231ff91ec0U, 0xfbe5e313d0e7f5e8U, 0x27d5fad7ff0d0e0eU,
  0xf029eaf5432feee6U, 0x73fc00af91d8155U, 0xb5d808f3f9391918U, 0xe227eee2e03dd314U,
  0x10cd2f04f7ff4e0eU, 0xf00f0d13fd2038f3U, 0xe5eafb18fefd0ffdU, 0xf40c2bfa07e7e7edU,
  0x335d0102d19d105U, 0x222c08541e29d13aU, 0xfa9f12edfc32e322U, 0x2be9e4fddb22f20eU,
  0xf3270ff64a14de1fU, 0xcae3f816edd627baU, 0xc511002c05f5b420U, 0xf7f62ee3c7b8f738U,
  0xd4f70d01c4021d5dU, 0x5dd00c09d912adfbU, 0xdfd6f222ec0b26afU, 0xf7b1bc020b450616U,
  0xad6fe5024bdaa5a9U, 0x9decc1a3124fac7U, 0x3e616cb9de1ebebU, 0x3cd82520ebffe7faU,
  0x1ccfb0e8c392d220U, 0xdec114d8e614e023U, 0xa9fcf0d21bd81819U, 0xf90e002d1ef10021U,
  0xa24cfd970adf2911U, 0x20a2e8dad2ceeed4U, 0xb6efeae92901c72cU, 0x6b219effa2df9e6U,
  0x91f6eaf52af4b3b9U, 0x5c31ee3cad2ebbafU, 0x17e201ee24eed2cbU, 0xaf48d0661a7f18feU,
  0xe6debf61df8ffd5U, 0xec531300190840ddU, 0x1a5d6c023ff2d10U, 0xf0310406cc9fa8b7U,
  0x53bcee26334bebebU, 0xf4ce2b8f10e6f9e5U, 0xbd52d22133be0dddU, 0xf6fcdbca5519ddb7U,
  0xe93a155d25e037f1U, 0x4a402413d82b16b8U, 0x14d29842eee20d31U, 0x15cf4bd8e42bed47U,
  0xde28c3f1f527ffc0U, 0xee19fcbd5c1b17c2U, 0x1567fa2a3cdbdb93U, 0xcfdf2e218ecea81U,
  0xf6d8a3500b1708b6U, 0x141704f5b9f307f2U, 0xe05980f63d8f2cfU, 0xf4e8eaece50d1919U,
  0xcb11f805121cfdd7U, 0xdd9e0792aca9f5b6U, 0x232f7ef1998e5e6U, 0xd69b9fc7f516e600U,
  0xc603c6f419e1e3cdU, 0x6faee0fbd15f80aU, 0x8ff5c4e34ee0fbdeU, 0xfee4befaf83dd606U,
  0xd3713346db2021e5U, 0xefe8260604d80fceU, 0x911c82df40329d6U, 0x191f0128f9f80e17U,
  0xc10c122dedea1006U, 0xf329b90fee07c0eeU, 0xf0bf529fcd913f8U, 0x1138bf02e12bccccU,
  0x1dfaa6d1e00018bbU, 0x161d0926f310f2U, 0xd407dde40eea0fdaU, 0xf320dfa0428f401U,
  0xea19f604010a2feeU, 0xf22cf50dfe18fb09U, 0xf00f191fec2b0be4U, 0x262fc615c60c28edU,
  0x32ee30fd180f3808U, 0xbdc8ee0d3012d1efU, 0xa0edfce83904e0e7U, 0x4e6ea190e03df0eU,
  0xd6f1fe100e10de44U, 0x15f20a27fb1002fbU, 0xf6071cf8e5eae3efU, 0xe5f41f08dfcb0a21U,
  0xf705285bc7e40117U, 0xcd0d0427052618f7U, 0xfbc61ee52319ffccU, 0xe2db06fce72043ebU,
  0x1cb4289dc049f8ddU, 0xf8f01f38d7d92afaU, 0x2ccf2ce481ef032fU, 0xe8102b04e7d0efd8U,
  0x53cbfee9a4b03026U, 0x7ff603be14274db3U, 0x251cfb1ad51807a0U, 0x1be9f896dc085afaU,
  0x8f9c01be3d9c5e4U, 0xdcc7eae51f4a38c6U, 0xd436efe73acca1daU, 0xc3f398ec25fde3d6U,
  0xc019faf443edd8f6U, 0x301623eaa1ee0412U, 0x271cfae0f0603425U, 0x1d682c03aeb0e42dU,
  0x266ada04ef293806U, 0x332afd62c9d1e8cdU, 0xe7e3e112f3f40dd6U, 0xdb3bf75f052339d4U,
  0xc0d21d210c691942U, 0x23e82ce5ff190637U, 0x310b1f15d6fad603U, 0x4911f907eceffe05U,
  0xe0f6eb28ca18ef02U, 0xf9cff93dd9181d17U, 0xfdf109cf01b0a8bfU, 0x4a2d0fcefce8ecdcU,
  0x6e2f6362ef71914U, 0x13720bc2e2a09ecU, 0x46f00a26ce1316edU, 0xfefeeeebefd40dfcU,
  0xfee4fd0cdfb4ebbaU, 0xce9003b929fbe716U, 0xed10ed2cd9d4d6eaU, 0xdb94dfe51b11f245U,
  0xef15050a37f423f5U, 0x82d9adc7c9a59d02U, 0xacbec1e4fec3b2ddU, 0xebefad13190ae127U,
  0xa2edf6153bfbc126U, 0x1ed1c615022e0542U, 0x3d051735c523dd00U, 0x399d251cfe07e407U,
  0x42ec00fbeeed1fffU, 0xe4c1e2f6ee1db7f6U, 0xb1f9aeed19d2aaceU, 0x4e0f30e083ead3bU,
  0xf7000a1a0b0cf3faU, 0xe592f8de1326e6eeU, 0xe22beaf21e0ffb05U, 0xc8dbeca1cf5d702U,
  0x271abc1b5bcfdf84U, 0xd2bedc00ffc8290bU, 0x9fcc071a2b12c2e2U, 0x13bb2917320e1a0dU,
  0xf1272c10dde828ffU, 0xc5b924e60c0f2ae0U, 0x20d13e34217ae0cU, 0xb9b7ed811beae014U,
  0xc617c60e4edbeadcU, 0xd6f70b3948fc1d23U, 0xc4fddfc60843e9f8U, 0xf4d0eccc312706f5U,
  0x1011ff18f31efd06U, 0xdcbf3e5150921deU, 0x1c162e1607e9fecaU, 0x19c1cfc5f5a928e7U,
  0xe704eb281b2c37c5U, 0xccf125fbf5d00e07U, 0xdd6003000f73312U, 0x18d8e4f3ec9a312fU,
  0xf3f34d2ceeedeeb9U, 0xffc8e4faf71b221dU, 0xae190d0416e1d9ccU, 0xfcfefff0e9f210ddU,
  0xc322fff312e59400U, 0xddee07f801ade0fbU, 0x12d90e350d0bf6f0U, 0xbb2c36dc1981f817U,
  0x130ae102e5b3e3f3U, 0xd9110d200d4af0dbU, 0x729e9fe04e101d4U, 0x101ff100fae9e190U,
  0x18e3f1222615fd1dU, 0xfa04def02af7e626U, 0xcce924d630b78a08U, 0xec12bdff32c4e90bU,
  0x5dfafc919d4f511U, 0xe10e99ec0543e616U, 0xa22c0fd1924f332U, 0x23351a4a0423eefbU,
  0xff6ee39d1242201U, 0x980fec082fedf41dU, 0xbd0235ed0342fbe7U, 0xc1c7fddf3bec1eebU,
  0xbff1fad2db321125U, 0xe706f8ece4ddd030U, 0xd8f8e9f9c4121e0aU, 0x55cff36c70c1900U,
  0xd70913fac9da2ecdU, 0xf1faddf43ebd0029U, 0xe11434360500061eU, 0xfe35d2d8f2eb0a0eU,
  0x1ec6f719fc3d0a1fU, 0x3a04c901e72ec725U, 0xfcedbe05d5f3ddf3U, 0x3a03eafafe13e088U,
  0xe71bde0be928f6bcU, 0x1fef7fb21f30cffU, 0xfed4d2d8efcc1bfbU, 0x2b0adc10ef0feb1bU,
  0xbe9bbe51a0223e8U, 0xcfad1d0fdfff9fbU, 0xd240ca5d0b09ee03U, 0xe8fd11e9f6d2c52aU,
  0xc945ed2efa1f2efeU, 0xe6a9eaeb26f61909U, 0xfcc90bfafcd4e304U, 0xf2b9e5ee071cfd3cU,
  0xe11b09a8f6fc1af1U, 0xff2ea1c2a203504U, 0xeef0eae8ccf2fd19U, 0x10fd3112b9ffe220U,
  0x3ef6d28ec3ed134fU, 0xd9281bd24a0e2e5dU, 0xc8c029b4152ad7f0U, 0x3df305fbde14de3dU,
  0x32000a99c4e410cbU, 0xefdff453e627181cU, 0x7d5f118c310c0a9U, 0x2451077fe61110ffU,
  0xfc0aedf91701f8f3U, 0x1dcca8b750d981e3U, 0xae56d92404e2d3e7U, 0xeac6c2a70cb9abf4U,
  0x861ed91c311609e8U, 0xc0f6bfd7e6edc922U, 0xabdc202430e3ded8U, 0xcb06e2320ddfff3bU,
  0x150f4c6e59d81d40U, 0xda00f5e72d069637U, 0x890e2e0f1e3501eeU, 0xed410012f7fcfb32U,
  0xe9e5fee218f704e7U, 0xd200e0f8c5d427feU, 0xc623b3f315fcd9U, 0x12efe21cf017fc12U,
  0x24a40cf513e8130bU, 0xc161e2f2a18051dU, 0xfa2cef10211bc81bU, 0x241bca21f020f8dfU,
  0xf31201e1c516e707U, 0x29311affd0dc0a01U, 0xe4e4e4f80cf9ddf9U, 0x161e2112c0e92ddeU,
  0x24fe5e200307214aU, 0x10fe152c013dffffU, 0x5f6cfc52d2911d2U, 0x13f8d8f905fb17f6U,
  0xeefd0111e82dc4d4U, 0xf1ca10f820d1e717U, 0xe4fb16cdcc0cda25U, 0x3ca38c91bfd28cbU,
  0xfb0d32cff9d3d9f6U, 0xf5d9e4d26502b3cdU, 0xcc3ebc170ed5dea6U, 0xf9e2c8e8320ad8cfU,
  0xb730d83c17d6c6c6U, 0xd527c8f6050af60cU, 0xea0bf01133e0d3d0U, 0xdd22f8d5e5e01e31U,
  0x5fa0b4f31de24faU, 0xd1d5c4e221dff9e0U, 0x813502f22b0bc7edU, 0xe107e4edebf10904U,
  0xcb06f210202af439U, 0x217cff210fefa06U, 0xf0cb14ca28ff1b1aU, 0x2116ebfe0b21f800U,
  0xc05f8f431db14d9U, 0xc407f0dc1d02070dU, 0xdf1aeb041af0d3ecU, 0x42101022a1506ffU,
  0xf5f719d1ed18e600U, 0xf7fb051701f91d02U, 0xf30d04ecf4ffe3faU, 0xeffbdd02f0f32adbU,
  0xe71c1f17ff0bfd12U, 0xecd5f2fb0cfcf602U, 0x15eaf0de1bc7d1faU, 0xfcce26f7100b22e3U,
  0x1e13fe140d0ad6d6U, 0xe7f423161ef1f1f0U, 0x15fefcf00f30f508U, 0xccf72d11f43229d2U,
  0xfff7fecee4f6fc04U, 0x2ebd39f3d1e25e00U, 0xe2f70284f103f4f2U, 0xf5d230db34363de8U,
  0x22200fb4d3fd21e4U, 0xc1f4230ff1cf0accU, 0x3bcfe3ddd5ebff1aU, 0xa1ef31e8ebc61704U,
  0x32dc15cfe0be1d29U, 0xf7e430d7c7d817d8U, 0x2409d915f4ef1301U, 0xddf70ceb0b14d1e5U,
  0x152e051bfe13091bU, 0xf92adb1bfbfc2f12U, 0xf8c70afe9c29eb0fU, 0xeb1b2508d102271fU,
  0xf1a21502a0d7e1dbU, 0x3f1332269df20ed5U, 0x68dc2d04da0746fbU, 0x2a0902fab9cd22d4U,
  0x19e2fc0901c932fcU, 0x1c2b0815eb1aedd2U, 0x2efaab29cedbe4e3U, 0x201bfc1f0d12f0a2U,
  0x25f2dfee12f8da19U, 0x3f3d00298112dbcbU, 0x3a230b38a8c35838U, 0x3432ec01fef3d8e3U,
  0xf4cfd2f0dd9090fU, 0x120ffdf5dfee10d5U, 0xef180d39f42e3f0aU, 0x1d08fdcbe719e41cU,
  0x17f5315425f0280fU, 0x5110eef9d517e53aU, 0xf5ba170f0750020bU, 0x212a06120458180bU,
  0xa02242913e416efU, 0x1f01d19e2ed4af8U, 0xb9e0f0b42e0c0334U, 0xe7be07fd04f7f402U,
  0x3e01075058e2efU, 0x2417252fd2f44b06U, 0x16ea352c0ff207b6U, 0x550510181ef72146U,
  0xf21dfcfe0925d4dbU, 0xccfce111d1da11e9U, 0xeae5220c321f06f1U, 0xd508f0201bd41438U,
  0xf3511f3f2b01124fU, 0xcec32e4dbf3e335U, 0xde7d8d9125c2f3cU, 0xf5342c0505e70730U,
  0xcf0c112214e1e0f1U, 0xf81426f9f3efeef4U, 0xa5e9faf91fe13c11U, 0xaa1958fa09c62822U,
  0x5f50419c3f93d4dU, 0xf181009a2ce1f21fU, 0xbfe0ccad3939bae2U, 0xb1e6de015113e85aU,
  0xb8e3bf1844fbbbdaU, 0xc02dee2e6806dcf5U, 0xe1ead2fafa130402U, 0xe1230a54270a3a9fU,
  0x2facb103c0f50d4eU, 0x267fcd30ee2710d8U, 0x2553d5320b3deec8U, 0xd21a92f50aeacf04U,
  0x49e8dd27de0f06acU, 0xafe3a00251ebf819U, 0xe834df0cff08e7b5U, 0xc923c0ec1cbcb3ddU,
  0x3ce7d9080251ff04U, 0xbfe148021bebf0d0U, 0x21c0cfe20bf60bf1U, 0xe91d1c46171119ceU,
  0x1dc4cfde030bed2eU, 0xe481a0b37c433e6U, 0xc2e313c604070b1eU, 0xe050a30eae00b0dU,
  0xd20d46d80f29272eU, 0xdbdc14e2fde9b80cU, 0x23d404efc5dce512U, 0xb5d30ee0d11826d8U,
  0xff119e3f204ac09U, 0x1c05190de3f44505U, 0x1dee080506d1ddecU, 0x2cd02181dd86030U,
  0xda1e1edc23d0f333U, 0xf2c8bfcad6f5b109U, 0xf2e7e1c4fe09fca6U, 0xf7a8abceb9c4bff5U,
  0xfb1d1804ecd21bc6U, 0x603e808e32be6e4U, 0xbfe4c41ed029e0f2U, 0xdcf906013f05ff3dU,
  0xc60729380abe2eeeU, 0xa9f2d2be57e1d7f1U, 0x9c71ca373afe21b1U, 0xbe2bfe11298fde21U,
  0xfb41102e33cf0dd1U, 0x151ac51e20f1e81bU, 0x20da0af4f0fcdbdaU, 0x1716222adb071425U,
  0x2133064300cffbf3U, 0xb1a9fece2dce0effU, 0x816104483af9efe0U, 0xfec6e5cd0deec501U,
  0xe6f1ee28060e2debU, 0xf316e3e7fc0cd355U, 0x3bde7f1481ee634U, 0x3612ca00ce30e3f3U,
  0xae192e62bdb1230U, 0xac13ba1f4b14400fU, 0xa753d6f656f4c7e5U, 0xc1eabce039c30deeU,
  0xbcd8fbdbf746fb0bU, 0xcb07d90cfbc3212bU, 0xc0f41c1a2f2223f0U, 0x622ede10affe009U,
  0xfdfc013818c10fecU, 0xb3db120cea1030d2U, 0x23eaffc2d62acc05U, 0xeec91cd0c810ecf3U,
  0xcac0ef8cf8e7cb06U, 0x23f10f2217de08c9U, 0xfee81fc1e6ff3cf8U, 0x6cd0eb6f929f7d8U,
  0xbd0934a817ff0109U, 0x16fdf71ab21c0cf0U, 0x16b625c60f38e72cU, 0xd0f061ad300e1efU,
  0xeeef1fe405f92d2bU, 0x160c20199eec14f2U, 0x25c3fac3c8162d5cU, 0x1163816eb0fede9U,
  0x17c932b0e217084bU, 0xf3e2eef510ea07fbU, 0xf0182628f3da0504U, 0x4dae4f033f4e0f6U,
  0x25c61a0ac2f1eafbU, 0xf21def20081e301aU, 0x13f1181ce1ec2c44U, 0xf20d2009ef1210c3U,
  0x2dff181bc9ce96feU, 0xd51f0d0e21e21bf0U, 0x2d3706fb16041420U, 0xf124203bf1d42ad8U,
  0x11e714f318f000e0U, 0x14f1110c0db2f4d2U, 0xe60a23111ce826ffU, 0xdf1d0afff7e4f6e7U,
  0xf910e411e40ef2fcU, 0xf881e5b6dca0f1efU, 0xe2c06ff0400fef0U, 0xcdc2eae739f1cbfdU,
  0xd31ac22417beafc3U, 0xecd3eac74affb911U, 0xbbe3d0036fd7bee8U, 0xc5a4c0d518f0ee2aU,
  0x4fcadc50c17df05U, 0x47d217321339dc36U, 0x1223fa35310d2ca0U, 0x39dfd0e6a9b8d9d2U,
  0xe30d88bbc1c2c684U, 0x8fd8a7a3b5f51f11U, 0x790fc3e08402b08U, 0xfd3d9ce99da7cbb9U,
  0x4f21db0cd2f0de7U, 0xba9035dab50f1239U, 0x9c90f33b81d4c6baU, 0x27d59d142dc2a2cdU,
  0xdda8b15c6cbd6f8U, 0x1cd69cbabc3dc0dbU, 0xacf648a4b81ba2a6U, 0xad13d1c3d0883604U,
  0xd32812c8f5f240b2U, 0x3e52ebc00902e9a9U, 0x38b0cb841024ef4dU, 0xafaa2dbaf7baace3U,
  0xe9d7efe52720a90dU, 0xd6fb0b452d8bbfc0U, 0xef9a9c320b20cebfU, 0x1a2899eed426f7d4U,
  0xc899ca3f37acb9cfU, 0xced59249b9d5d32dU, 0x2499bfc8bea23426U, 0xdd27e8d6d1b93116U,
  0xb0d4f497b0bde901U, 0x1bbabdd5d1f5ea3dU, 0xe098b652ffccfeeaU, 0x1732e00e0cbaf68eU,
  0x35c88fd70a120df0U, 0x3334b7231531981eU, 0xfc02d6da150cb1f0U, 0xdc42bffce4fd17eaU,
  0xfcba0fdc1b102710U, 0xd316fd3186021f11U, 0xf7adf4ce182a2a1bU, 0x131fd62ba60f2c0bU,
  0xe7cd031730355758U, 0x55e203e82a2135c6U, 0xb0170af845e3ef0dU, 0xe0e803d14d1a12e0U,
  0xdd0a1927a2ebf5faU, 0xf2cdf016ccf8acf2U, 0xfeb0321f1fdad1bU, 0x1dd5f8ef0300d613U,
  0xf8183cebf317d1eeU, 0xedb311e76eecf327U, 0xc533e0024faa581U, 0xc3f0e5f42adde5f0U,
  0xeb0fe52bedc7e5d0U, 0xf8dc19c3a2e1fbfdU, 0xaee1424d9b820b4U, 0x22af2e01ecfc24e2U,
  0x191affd9e1f70fdbU, 0xd9fcec1a3b05fb21U, 0xe934e20431f7fc04U, 0xa40df4092bcbf9eeU,
  0xf8e9f1b0f73ee321U, 0xd0ef6d2dbcae106U, 0x4cdb08f3f5b73313U, 0x1aea429bd3f6b70aU,
  0x35ee1345dc094603U, 0xe80b4ad332a55802U, 0x6cf33ce9e713d40eU, 0x41592331fbe6e3fdU,
  0x22cf20e4ad252929U, 0x7f29153dc82039edU, 0x6a02c015c2dd2a1eU, 0x1703d3fbdd3bd2e1U,
  0x448b1dfcc4008b1U, 0x1bfb1a9b03e3ebc9U, 0x28eac419ff8f05fdU, 0xd1cec2bf28ddfd1bU,
  0xefecd5f60dc00129U, 0xfd16e7f1fbf3ed4dU, 0xf602b856f1ff2230U, 0xeb003727ec0f0349U,
  0x2704e9e11f12adaaU, 0xe31be5e2f006eb0aU, 0x1dadd3df01e62758U, 0x2c220dfbb50418U,
  0x4aba1de7071b2e07U, 0x2de4e6141d12ee0eU, 0x330306fbf62d3d07U, 0xe8fbaa4feff22b27U,
  0xc43119061613fb01U, 0xfcdd11d1d2dad4bbU, 0x30faf9e92400d7c3U, 0x7e201baefcee4faU,
  0x25e4f00d38db312aU, 0xd0f13151e2de13cU, 0xcbf8cef95705c7f9U, 0xaa1aef1e0af8fa0aU,
  0xa4eee20af90ac5f9U, 0x50537f6f7d22cfbU, 0x2dec2c12d8f4020eU, 0x3a46ea1daafef4f4U,
  0x42ebe2ebca1232fcU, 0x43190413f607fef7U, 0x4a2edef8d2071506U, 0xd0fdce5f811f9e7U,
  0xec0ffaf9f60de4d0U, 0xe00ceed2fcfef4f4U, 0x17b6eddce5b5f106U, 0xdce307c7baf3f2fcU,
  0x4c7f0dce4e2f518U, 0x3daf6f42312fb29U, 0xcd070a06ed28fcffU, 0x9fce926ebdb3009U,
  0xe4f902e9000203edU, 0x224e1e5ba030ad5U, 0xa8105e1ebf20324U, 0x41615ebb7fa0a05U,
  0xae100f900e24a23U, 0xfaf4e107e1f8090bU, 0x16120cfbfb0bfd0dU, 0xdd06052600fc1f1aU,
  0xf50ef215121ab7f6U, 0xfcf8fcf0d2f8cd0bU, 0x250dff05f7fbfce0U, 0xf50704eff419f005U,
  0xf5e9052cfbf7101dU, 0xf513edebf929ec22U, 0xe811fd1413eecb0dU, 0xe5e8e5eb001bfb23U,
  0xeff903f4f3faf3f2U, 0x7f182b0bfc1737daU, 0x413ff12bdcf304dfU, 0x1207de24ee321be4U,
  0xc553e03203e1dcc2U, 0xdf1fec09e21edafcU, 0xce0cc3e2473a0301U, 0xdf24a3de07dc01c9U,
  0x604e51828d9cbdbU, 0xe00617e6f8cdfdf2U, 0xd73a212900261cbbU, 0xb2509223cf0d913U,
  0x6f2a021c1808e5U, 0x1c36e931e31403f4U, 0xc70bf12e10f80311U, 0x73fee2e0233fe14U,
  0xa3080d052f172162U, 0xd50520c0faccc70bU, 0x101afbf110fa2a2dU, 0xde2de01e0834ec0dU,
  0x17f6fd36f406d912U, 0xf50af13bdff31e2eU, 0xe0b1c142e13f2e7U, 0xf0f62cd803f448e7U,
  0x102a45f9f612270fU, 0xfcede9a009f7b7eeU, 0x13fae430ffeddedeU, 0x7e3f8d10de4c9eaU,
  0x710fc2a18e2e9c6U, 0xeb0afdde260ad7f9U, 0xf9eae806fc01e30cU, 0xe5f32c1ffa1f0303U,
  0x7fef80ce9ea1730U, 0xec1fcaf80ac9c6d2U, 0xa208abd3d1ca01aaU, 0xbbc78bdef8c1fdd3U,
  0x9a27ac1259d3b9cbU, 0xcccaba945404fd13U, 0xcbfdffff28e5fad4U, 0xebe8190b27b6ba67U,
  0x7f101a271a343102U, 0xb528bae2f1b0f2a1U, 0xcacebb8ee9e49859U, 0xfc12141bbed9ae00U,
  0x34e1d81329cdb81cU, 0x9e72fc91b40d7eaU, 0x7fdf90a3a010b18U, 0x3d0f10df091df208U,
  0x252d2411fe2170ffU, 0xfebcabf317f9f7ebU, 0x91f1dafeeaed92f1U, 0x12d2d0064a001e0aU,
  0xc3082f10ebb8ef09U, 0xdc06e3ed14040310U, 0x39f63c032b16050cU, 0xfefe0eb14e0aed35U,
  0x175500d2e4010be0U, 0xb6a3f5d910140520U, 0xcb2f324f29b6e1c9U, 0xaccec2da42051409U,
  0x430a2d050d23f712U, 0xe4d7fcfd121a000bU, 0x6014102cf52ef510U, 0x810e2f81f1feb03U,
  0x626daf9f61329c4U, 0xa6eea61cc9fbd9U, 0x240d0ceef203d4caU, 0xf8d311c1031b4cd4U,
  0x243e11292c1325e1U, 0x1e1ef82e1228fb1fU, 0x161fe748d7d10002U, 0xce2f21eaf41614e1U,
  0xe0dedd5c2f8b6bcU, 0xdf0813e4b19123dfU, 0x26e904e1fcd00cf4U, 0xed5731d11b08f5f0U,
  0x2b2afa3d381419fbU, 0x1459bfffaaa8c3d3U, 0x3dcbba42c60c0afaU, 0xf421e0030ffbb901U,
  0x32dabdd4c427fec5U, 0x3249f0cfb520faf7U, 0x1bb106b701ed1340U, 0x1d08ddeec0accfeaU,
  0x21e6ddfcecfb2765U, 0xdc28bd27eef9fb0eU, 0x12bce449fe4f70bU, 0x11fd62dd503d4ebU,
  0xcf0cd41dfe1af7efU, 0x21051df7ff48efdeU, 0x15d2420309f8cb27U, 0xde1ed7fd1d2b2d16U,
  0x2c1b22d2d2010212U, 0xdd0d142fcada2ff2U, 0x11dafaec81efdff0U, 0x1531e534db1bd721U,
  0x2af1fc24e5d55a1eU, 0xe38f33a81e8f51dU, 0xeaf610bed9b319e6U, 0x220f26f0f350fef9U,
  0x23e34fa011d827feU, 0x1bfe032e09230ca5U, 0x7d127293af40a22U, 0x22111441e42ffcf1U,
  0x30e91bc5d8dc4963U, 0x56c7dfb3032945deU, 0xe6f5171c13f82604U, 0x29a8dd936931caf1U,
  0xb83ef24236e9e8d2U, 0x7bdeadd1ce4b0edU, 0xe3121b0f16e3bbbcU, 0xf9c62ce912242006U,
  0x1826fa16d6f7d0b3U, 0xf1c1e09d3dd0f615U, 0xec321c0b2902eae3U, 0xceb900e94108bd0aU,
  0xcf3a9fe54fcc10bcU, 0xe8afc9b71516d9daU, 0xff04efe63719ffb8U, 0xff99f8e8fddaecf8U,
  0x1e1dd9d0050ff409U, 0xe6d5ec032f04ee0bU, 0xb13ef32e32f801fbU, 0xbbf2e7ed49f9fc14U,
  0xbc20f8da2cf3ffebU, 0x4d7effbeac02a02U, 0xd30517f130faf61cU, 0x10e4fed6092ce1fdU,
  0xb312f6070e11021fU, 0xebfef334f125f031U, 0xc6eb05ec1a2db7eaU, 0xbc192cf202feedfeU,
  0xfd011af01a02fb12U, 0xbd0b32c814db1006U, 0xf8f3fd170e0fee0bU, 0xabc65bc910c8f2f6U,
  0x199efff1c9fb2f3fU, 0x9f92c07fbef3400U, 0xfbff12193509e4e7U, 0xdaef070e0e241bd6U,
  0x11c143e272aff11U, 0xeeaf7fdf6fcffc4U, 0x40de61b33fef823U, 0x707ebe2201cd7eeU,
  0xfad5c9dfccd0e806U, 0xfc2efd18ed1307e3U, 0x111d1107fc1126e2U, 0xdf1c1be2f4de25c1U,
  0x27efe1dd290ce0fbU, 0x934fb03fc1c12bdU, 0x51c0ff7060afef9U, 0xfd29f30315e40bc6U,
  0xf7f11ad6d832ff21U, 0x8090fededfc119bU, 0x1b0cde2c81daf644U, 0xb2701f0a5bfe5b7U,
  0xf1bfe1d40bb4e00eU, 0xcb2a04def11d01d5U, 0xcd1feee42cdcf2f2U, 0x8160621e4081d04U,
  0xc5f4071339420c4bU, 0x426d064cb05a2009U, 0x289e110ce43e0ae2U, 0x4911d400ac07ddc9U,
  0x19e604081428f7e3U, 0x41170f3513d0cbe0U, 0xccd70ad92512221aU, 0x3f17f21cc020f91aU,
  0xa0fe10bd080703f3U, 0xdf201519342f17eeU, 0xed2d0e3528d62b28U, 0xdf23376e642152faU,
  0x24091cfeebe1bf08U, 0xf82133570c072d22U, 0x24244f2afa051d06U, 0x1cc40c2e0c2a02daU,
  0x94028220ddfdd22U, 0xc4f4312c7fcd19fbU, 0xf30fd7cdd10b2616U, 0xf9013a2feef11cdbU,
  0x3f8a161e09fe1e08U, 0xbd1d3517dba2ebdcU, 0xc9f4f31329272f22U, 0xa1ca051835d701f4U,
  0xee2adf2c5b3809deU, 0x27ffbfd00ca3fddbU, 0x1a75ed22e9c01f07U, 0xd4afc0b903a0bce2U,
  0xcaf8e53d0cbda9fdU, 0xe7d3f2816a66b032U, 0x809c0ca7587c735U, 0xb286cf92f0dfcf0eU,
  0xf915dff7cf1bea0eU, 0xd5ddfcf803b1ae10U, 0xb1e8c2d4d4281a44U, 0x1127fc08533edbfcU,
  0xa50dc3e78102f444U, 0x1039b517af44cfebU, 0x5acebfaddd40bddU, 0x42baed811fd03ccU,
  0xdd06d5dda707f50bU, 0x111924bf161d1e12U, 0xa26f903edf016d8U, 0x27cdf1d6e91be1edU,
  0xe62d25050703e503U, 0xf3c210e6d810eac8U, 0x1317cbf5e60dd7a1U, 0x171efffdf30b2cb3U,
  0xe0f9e0e03011e6dbU, 0xa6bdf1ee5b1c56eeU, 0xe4c311a9fd4117e6U, 0xccf4e6de04defd2eU,
  0xfa46ea54edd2f9deU, 0xcc1916ebfc0ac928U, 0xf342f420eac60904U, 0x941f361bd08edbdaU,
  0x7e051f11f143913U, 0xca061bf51dfb2dd2U, 0x2ba4fd1b0e1df3eeU, 0x942513f82f2a2a1cU,
  0x1bf5f7cffc0d0a1cU, 0xd3221b2abb2449f7U, 0x569cf8ee98e1fc2aU, 0xa60f6c17c69e4423U,
  0x42d93622ffcd1935U, 0x5b17f8c761be1fa8U, 0x1d2dc818fdd43cb3U, 0xc5e1f9aa0ef53cfaU,
  0xe03db2f01f207bfU, 0xefffed14f7192de1U, 0x1411ff4c18f903d1U, 0xfb0aee31000beed4U,
  0xe7eaad32fc0ae2d9U, 0x3620ebd6bdeddaf4U, 0xef10e7f0f922e50cU, 0x1e46e403ca09b304U,
  0xfaf3b6c621e82623U, 0x4a4ae303d6afcdfaU, 0x26d5defb39e90800U, 0xe0588909d41304f0U,
  0xe2e6e0e03a40fcc5U, 0x9deaf6dd393dde3cU, 0x8129f0ca23f5ca0aU, 0x3f08e40c09220001U,
  0x98df04c6ff1ee44dU, 0x11171f351b32e82aU, 0xbefceefce1f4baf9U, 0xea0b113309f91a29U,
  0xdce906151efef40aU, 0xd0e62102460b1becU, 0x20991d011afab7e8U, 0xf0c424f3e8221df2U,
  0x60dd28f2dcea9db4U, 0xe8df202ee1e7fbe4U, 0x14dbfc08a923bcccU, 0x729154c081926bfU,
  0x17effcebc9d0200eU, 0x25182431e8040fd2U, 0x2cfbbe85bcd81010U, 0x25fcf040c625dda9U,
  0x15dcda81cce314ebU, 0xfc2443061dcbbc0bU, 0xff17e1de440e181eU, 0xcb100cfb06c4081eU,
  0xf82f060bfd0efefaU, 0xdd43f0c4e916d3b9U, 0x292fc3fb02d8401aU, 0x3e2f0bd0e26de17U,
  0x1f53fce2cef9d900U, 0xffdd5dbec2ffa4cU, 0xdbf41216e80b1033U, 0xdc194b3bee0f4e43U,
  0x26ebf9d9a3d0cd00U, 0xf044e919e0068fffU, 0xae6e945e80f290aU, 0x10fee4000623ae2eU,
  0xfc20e3e8f5eb0303U, 0x28f1e018d4d6bdeaU, 0x242b15f50c09d7d7U, 0x3ce609dfe80e0dafU,
  0xf8efd9d1c5eff124U, 0x1634df11dc4cd0e7U, 0x2bc813abe1b81c5bU, 0x6110f922a7112505U,
  0xd00524ee09de0d0dU, 0x56cee3ccf31204f7U, 0xa71c3bcffedbe8ccU, 0x1aa0edb31de0e81aU,
  0xedf1fb1b46d300b4U, 0x400235c0d2c04cf4U, 0x31f7fe11cff013d7U, 0xff08d4edd911bffdU,
  0x964db19ea031ed3U, 0x8169611092df4dbU, 0xc134d717f629ddb8U, 0xd4c7ad1102fdf4d5U,
  0xe61bd8537f1af801U, 0xde07e5eceec7ef2aU, 0x7f709e1d50d091fU, 0xfc0000ff16f3db3eU,
  0xd74ff6ee1332d602U, 0xff1fcf10fbf5122fU, 0x9090326f326dbf7U, 0xe1ffe61cffed1020U,
  0xcd18111045563bf3U, 0xe2fe22b50dd9cf05U, 0xf8f4002ff217e819U, 0xf5eb1bff0ff6bd2eU,
  0xe16fa13f8d8f7daU, 0xf41bf022f3082f0aU, 0x19ff08f706ddedf7U, 0x2336fd08f9042d3fU,
  0xee10e6060bf62e0eU, 0xd4e5ec21351e2d34U, 0xded00621502302e1U, 0xebf107f6f1152730U,
  0xfaed29dfea020aeeU, 0x10ce01ecfedf1c21U, 0x23eb0800dcf70c0bU, 0xc1c1500fb1424e8U,
  0x1cff111af8d5240bU, 0xe7f7ddebeff92418U, 0xe1a821e8fced2242U, 0x2eeeead1c90db0c5U,
  0xebd4d9b4dd0b1e43U, 0x16e800f60c19b1ebU, 0xd227f2c8db0c2217U, 0xd510cb083ef408f9U,
  0x89203eb5362a1010U, 0xcd06fd41201bdb05U, 0xce912e2fff9f634U, 0xe0990105163b2a50U,
  0x2cad9e2f0e58fc5U, 0xedfdf64c3306454aU, 0xfa2722b7b71893c8U, 0xe6f2e62f38fa70f1U,
  0x26b911a8aa07c1caU, 0x3d01e947a5101eceU, 0x8def5f0e3003507U, 0xeaf11f39e64d2effU,
  0x3dc8ec009cf41503U, 0x2cf2d2f5b5ffd900U, 0x131a27e6fd05e7ceU, 0x46cecade093117b9U,
  0x448d9c5290df4dbU, 0xf070cf9811de118U, 0x584b0849c4f2110bU, 0x1d3eefebcb0807faU,
  0x3b12ed1aab093e22U, 0x2011dcee072af7fdU, 0xb7081a3d21a1f8dbU, 0xdfdaca8af3f1a41aU,
  0x9a601d11102a18eeU, 0x7f1e130762c50411U, 0x3ecffce3be2b2cfbU, 0x302df601b8f2e8d0U,
  0x6ba0041ceb513dbU, 0xfa1bfa38e143f00aU, 0xedf0220abd0ee2dfU, 0xfd06e71ef745e0f3U,
  0xdf070de616f21b0bU, 0xe2d9000255c5e722U, 0xc81703edee3a21f7U, 0xdd0cf5192cc3bc42U,
  0xed0ad46b0e06f5fdU, 0xf80c19250557ecdbU, 0x8daeb00f00fa3f0U, 0x7cde804f534f2c2U,
  0xf445e056582db3b6U, 0xd8ab3fe77eef0e22U, 0xe4f1e5c21914c9e5U, 0x1adc2307d8e104U,
  0xfde2c02d0ef6dd08U, 0xd4282044e3fc0aadU, 0xae729f230d217f6U, 0x50ef506a1f717e1U,
  0xd130252c45144137U, 0xf3bd16cd01e41ce5U, 0xa3fc930282ccfe0U, 0xb7e5edc1d6fa2513U,
  0x3ac06bad243f6f5U, 0xdbda061ae4c51f22U, 0xafd172b1e061835U, 0x250c20c510d30cfbU,
  0x14ea1f150e00267aU, 0x38f89513fa46c11fU, 0xbfeac2d30e09bbcaU, 0x1cfeb10d234506e0U,
  0xe3e6f5e02cd9c5bcU, 0xf9e8c9db05000a00U, 0x81073af23ff2cef0U, 0xf6e2b5f627f10c0bU,
  0xb11c0ffb1828f30eU, 0x3800cf09f1f1faefU, 0x50d2b011d2b19d6U, 0x2801201cebf0effaU,
  0xe5320b2d1a460dffU, 0xfcf80f301b0914d3U, 0xc9fe25ba27071bffU, 0xf1fc1915e82c4018U,
  0xb8fd52bbfb3d1322U, 0xf6d123f23bda0955U, 0xec19380eea2f1819U, 0xdbf2f20e03e2ef12U,
  0xfe1e071d18f1d7deU, 0xc5d305e0231b1ff0U, 0xf9f0ffb7daf80ae1U, 0xeec84620ebfd1bf0U,
  0xfccc19c4eaf1031fU, 0xeeff17001f07faecU, 0x160cd5e0fcc6cecdU, 0xd619de021104df36U,
  0xeef9bf2425d40be3U, 0x17fdba172f301bd6U, 0xfae5dcec12023b0eU, 0xfff82108fe2744fcU,
  0x140df108e302efe1U, 0x6d9f1bc10e2fe12U, 0xe4ff02e42705ece0U, 0xbcd31b1331f22108U,
  0xecfb2bd1100aec06U, 0xda0af313fb06131bU, 0xdfda1ae4f5f1e6f9U, 0x21fffd0e20100bc9U,
  0x241ad90acf05f1f7U, 0xdd1b10f1eed759f6U, 0x2fd026e3e0f7dbc3U, 0xe20e0bfc058120ccU,
  0x240e3212091109c1U, 0xe408def0c2d6d7a4U, 0xf9e9a31801fdfc0cU, 0x11d103181db1f7U,
  0xfa11c30ee8f1f7d1U, 0x202308c3d6e70317U, 0x21c4fe04f0fe3423U, 0x911e9ddd799b30bU,
  0xfdfe707e01e2723U, 0xd208bd09d3b8b91fU, 0xfafdccf80ee7f6feU, 0xde071614e910ef18U,
  0xcb04faf1f927ee1cU, 0xe1f310e12c05f21eU, 0xccd71e042d24f111U, 0xeeceee112e5f528U,
  0xddcfedf4bd0be010U, 0xedf82cbe0012f6U, 0xf7d8ecdee6fdf6eaU, 0x1ecf62bf60a32dcU,
  0xe1f208eceef0f4ebU, 0x260bf6e7063b20beU, 0x2512cae7b3d71fdeU, 0x221aabf6d43a0ef9U,
  0x407cce5f40ae4d6U, 0xeecfecf1ea1d1fe0U, 0xd81ad5ef2425c8d9U, 0xffaebdf026fc0e4bU,
  0x925502067fe09dd1U, 0x5f9e9fcd003e52aU, 0xc0e28f6e43ce233U, 0x3f90c17d2cee23fU,
  0xe228f727031cc909U, 0x16112628d3ebf420U, 0xb8f3cecdeb19ecd2U, 0xdf1cf327feed1a14U,
  0xc0231cf7162e1505U, 0x21072b110507e324U, 0xe8f20241c8dd09edU, 0xf5221c26dcfa0d16U,
  0x121fe43fe7f210d8U, 0xf20f1d2305fe05daU, 0x1708f5d2f4e405ddU, 0xb1a0d04d9ef28daU,
  0xeffafbf30c024d28U, 0x3f20a190a2bfbeaU, 0x90cf9231ff32313U, 0xe5fb0debe7ecf62cU,
  0x30d19ebe20b0debU, 0xf30cccff16ea00f8U, 0xcd0ffdff03dc2828U, 0x1f190613ef402c0aU,
  0xffe20f08d5faeb2aU, 0x1510e6e52440b7dcU, 0x3068db32d7530ed6U, 0x2013c8a7f9ecb60bU,
  0xcccfe21c311e3b08U, 0xb317d8f6d6deae38U, 0xa007e8d732b80b25U, 0xcc13ca2347c7400aU,
  0xb601f92827d80c14U, 0x8205d119e52f1c6cU, 0x96fdf0f2c0551846U, 0xdf0de36bc4021116U,
  0xb7dbe2fb1165eb50U, 0x4c01e96ed8cc10adU, 0xd2f614961397fce9U, 0xdf18181bd0e600f4U,
  0xce08202d1dff0f1eU, 0x45e3361aed0cf2deU, 0x50e4e5ce9f1c0d58U, 0xf0fceefbcc3c0081U,
  0x3df0f00bdbaef809U, 0x42c23af7fc3ded1eU, 0xc1ceff8726dda934U, 0xcd9a10c6f103e8c6U,
  0x25b5ccc5dc9a0eefU, 0x6bead0d0a9e9bbe4U, 0xb005a30ad68fedc4U, 0xe4ee05e61febbc47U,
  0xc13dc1e729a4e6adU, 0xe97dddb55eb0f0cU, 0x2306fbdc03bcced6U, 0xdabfeff2fd2142eeU,
  0x3bfae10ffb09b3cdU, 0xddf89ce6c5e9a0eaU, 0xc0e9decd2b2996e9U, 0xe708f8f2fe25f21aU,
  0xc4161b1810fee1eaU, 0xcb19e20122dc23fcU, 0xfee0151ab9f21f28U, 0xd5014153dacd3afcU,
  0x2d811edace21f24cU, 0xbcd4f50ceadf2b14U, 0xcc0817c0fef8d9fbU, 0xe1d8060b02082d0eU,
  0xd31b1e042f34e7ffU, 0x1bc507010aee05bfU, 0x10f6fce1010eddf3U, 0xeee64fd6dfe0f7f6U,
  0xfa8205e72dd0f61dU, 0x171c08fed0ef09dfU, 0x27dcfff40ee7fba5U, 0xf01e1308f6031ed1U,
  0x28fb04eb08c4e6e4U, 0x802e2f5291c29acU, 0x30f06c6e30802e0U, 0xf6d0df0f0cf217e2U,
  0xd8e30e01ea48c60dU, 0x1b1bfe0ae0f10dd8U, 0x231e0912d2e73cf1U, 0x24042022efe5ddf9U,
  0x1508dc1324ecfbfcU, 0x3fdeb041a45f3f9U, 0x627fbf5262802dbU, 0xe30bf41e0c2d01d5U,
  0xefe7f4e0e31bdee9U, 0x2ae729020119ede5U, 0x29f4ef030304f1e7U, 0x35fae53415f8e210U,
  0x3071ee2f33006U, 0x2dc8ea1ad73527efU, 0x107e6dedc23fdfdU, 0x21dcb9111c2fddccU,
  0x97f3af0ff2f7e2d8U, 0xd5bd0cc6129ee00eU, 0xf0eeebd709d90a34U, 0xd01ddf0200d225eeU,
  0xcfedce43f2b50829U, 0xedf339030d03faceU, 0xe6c0eaf530c3a2d2U, 0xce8141e52a0404e1U,
  0xe13420e04e35ded9U, 0xa15f3f7e2eed105U, 0xe7e3ffb3150a1e1cU, 0x2736cbf50a04e7feU,
  0x17efeff9b3f70715U, 0x105f001effbefddU, 0xe7f7f0eb1ed7ef0aU, 0xf628e718fa0a0523U,
  0xde02263a5cf636e7U, 0xd41214d20b18210cU, 0xff0b13d80f04d0ecU, 0xda01e1dfea2607ceU,
  0xf5c70910f10a0b0bU, 0xdffc05f7f8d4db20U, 0x4fedbfc41eaf21fU, 0xe22f171a03fdea1fU,
  0x20635c7f4062065U, 0x4b2be84fcf4ef3d5U, 0x3d15d4ef0b21d4e1U, 0xe400f1211a2423b0U,
  0x2919ec130bd41df5U, 0xf525640fbedc2cd1U, 0x24f013510021d1U, 0xcc322d10e0dfc4faU,
  0x8e2193159061d38U, 0x121e0a0408e10bcbU, 0xc71ce4e1251b0bcdU, 0xa311b1144eb1de2U,
  0x2efcfd3ee6075d27U, 0xf3292f0405fa2207U, 0xd022bfb1fe0313fU, 0xaceb5825fbeb3f0dU,
  0x1dde24d627033577U, 0x100de2e847fee0a5U, 0xfb5732e7e6b91e0dU, 0xe731f9e344ecfad0U,
  0x8e3e3351ac5b5e6U, 0xdf30f019dce2f5efU, 0xcbcdf92af116caU, 0x339141512bb38f3U,
  0x12050e01dedf091eU, 0xe5b2f2a4118dbcdaU, 0x1a290010fec7d50bU, 0x3c2b7d01cef8107U,
  0xe01e980c07d9edd0U, 0xff0af6c52ed5da00U, 0x29dcbced281eca19U, 0x908e7db09fec133U,
  0xbd1c20abfd4f521U, 0x283fe012fa30ad44U, 0xb4ffd71af41e3615U, 0xf8112720fee1a3eaU,
  0xd716fc0316f3eeecU, 0x211bde19e62ff6eaU, 0x3200a29cf1c21afU, 0x3820baf8f008cdbdU,
  0xe81add2f1de7d7a8U, 0xe609e81c5103d729U, 0xf1e3e2160cf7f006U, 0xdfdd0207281335f3U,
  0xf1000301bf08d2fcU, 0xbfb8f10904484201U, 0xfd191ec8152df5ecU, 0x38bbcb32120cf1d6U,
  0xd70919d53adcc2ccU, 0xa7f4fa353cfb4abaU, 0xdeef23f52928ce07U, 0x51afefa25f42ba8U,
  0x2596f498d412d0e5U, 0xb6f346e70df1008cU, 0xc203db8639e02e0fU, 0xc6c5fa2822f415dfU,
  0xd6101d0a7f3d1a1cU, 0x1bf2e8e9efd80398U, 0x730e320c8f0d2e0U, 0x27d9e8efa509f6cdU,
  0xefeae4591d0adff3U, 0x180ef30011cbfffaU, 0xdb2ae10934c01520U, 0xa2e91fbe032e16efU,
  0xf9181208e82cff1dU, 0x1ce8f32b881df8d1U, 0x6c5f2cbf006e2e1U, 0x2aef0f10c1ff13bfU,
  0xf72c19e026f406e3U, 0x122116134ae3df0aU, 0xf12ff82052fa2814U, 0xa3520d1ce06d700U,
  0x1b10fad9130807ffU, 0xf8f9fe0dc8cf27d4U, 0xef13061afdde3912U, 0xe4112b0826a8fee7U,
  0x3429ee042ec9f22dU, 0x291f230a2cfad625U, 0x700de06d71de719U, 0x14041f0218f40ee0U,
  0xf90bf0effe0c4f1eU, 0xf60109d901dbf9efU, 0x541bf5c68a3b41U, 0x613181d30d7e001U,
  0xfce5ce3522c6b80aU, 0xcdfb14f4efb4f019U, 0x270e07f92d5fffefU, 0x2f9f5f2f29728e3U,
  0xec3211c7000c2003U, 0x17add8a31d948aebU, 0x1a3bee3fe7d5f5b2U, 0xd1aa99ff000ba036U,
  0xf417bd093cdca5e1U, 0xe1e7dfd3632404f9U, 0xfb0ed9d43aea05eeU, 0xb081d8ece4cbee09U,
  0xfab9c5bde5d4d3ddU, 0x272a1b090407f23dU, 0xd8f7062c293c1e0aU, 0x2e213a19e11be008U,
  0x23d821141e113f1bU, 0xf00c241ed1f5eaedU, 0xd9cbdafce80c1519U, 0xde2ddf2edda07c2U,
  0xe0e2fe080d0c05f0U, 0xfd1f2b46f936cd0aU, 0x8b42926031bcefeU, 0x20f21609041b21U,
  0x6c10ebce80cc8f9U, 0x1bfe29f7eec936f8U, 0xfd10463116e2f702U, 0xf1d20399fbd8e543U,
  0xf5482c1f2c02e0ffU, 0x6f5331ae601f2b2U, 0x1abedbd2f7d70824U, 0xdbf73dfcd2051ffcU,
  0xe9eefde3080101ceU, 0xf01139d402e419faU, 0xa123edda00eb5332U, 0xd11d6600e7c04a43U,
  0xfd0bf103f10af653U, 0xf1900088c2e0e427U, 0x9631d4ed36f7c9fbU, 0xefc5cd1840eff57fU,
  0xb9fcc9d01628c8ccU, 0xecf2fde03202e629U, 0xe9e8ff14fe1eb926U, 0xbb1df22621f6f6ecU,
  0xece6e810a908c33fU, 0xf0f630d221e36fbeU, 0x221a1bf2d6014404U, 0x2fb071206dcdfebU,
  0x41f9f3dac4fd210aU, 0x17321d07f9e1faU, 0x151acaf808e408d8U, 0x17d8b919271cf7cfU,
  0xe701b4bc4af60cd3U, 0xdb09038e008119e7U, 0x708e2f9f0a61006U, 0xcedee5a50daee7f9U,
  0x1c0b0337fdc9061dU, 0xd1fdabc7160fd339U, 0xfe05da0704fcfbdbU, 0xc902f8f129e32828U,
  0xeefcf907143118b1U, 0xf608e5d3e3ffb308U, 0x22c00befe1ffea2fU, 0xf920d3d1fcc9dff4U,
  0x1bf1daf6fce1021cU, 0xee11c9ee0fe60ee3U, 0x6051f0313edfedbU, 0xe31ae21ce8032b32U,
  0xdaeafc3801101606U, 0xe191018f4fa1c10U, 0x6fd12c905070921U, 0xf10016f3e9040315U,
  0x30534f017eb3c16U, 0xca2f121225dc0bfbU, 0x27080ef8abf4202fU, 0x1f5fc21011ee20aU,
  0x9c50e20dcf9e3fdU, 0x47d69dc3cc8fbff6U, 0xdbf4b5d9aa24bc89U, 0x26cad9b303c0fff8U,
  0x184619e54804d7d5U, 0xf11fc7432f0f152eU, 0x1aea312b1dd4011bU, 0xd21a067325434172U,
  0x164a2700fb0a3531U, 0x810b0eb0fcfae807U, 0xe8b8dcf40c2b97c4U, 0xf8151a9d40d70b12U,
  0xe0b22e31fad8d6f9U, 0x1bf306e4bcf433d7U, 0x33a8eaf8e4fd29afU, 0x14d8542c12111ce9U,
  0x570bf6cb043fa4e4U, 0x715fd550ee52feeeU, 0x20aed4e8ec0aa70fU, 0x532dc708030009baU,
  0x3295b1a4b4074e3eU, 0xff0399f5e3bae888U, 0x1b02e2f113ee02f3U, 0x19d9d38435a0ddd7U,
  0xcc2c1e0b5c21eadcU, 0x32f52e5d904f37beU, 0xe24154efee39d006U, 0xec0bf254d43413deU,
  0xbf213202e621ced9U, 0xfcf5ff14e11932d0U, 0x17103dceb807d41cU, 0xc2ee0da8e2a9b026U,
  0x9ca35273de634d5U, 0x81bdef9c28cff511U, 0xe7d1330819011032U, 0xc05dffef9e2fa1aU,
  0x40023f2e41d031bU, 0x24e8e4f003f7fa23U, 0x7e3ec0eda110b2bU, 0x24e21de1fd0ed7f0U,
  0x14f7b6d3f01e01e0U, 0xc50fd8f606091c10U, 0xfbd8050300d3e4ebU, 0xe0dfdef9f2100302U,
  0xe9d3e402f2defff5U, 0xecfdd6e10a16e922U, 0xf819c922f3f5e7fdU, 0xb0ed4fbf0d6d1f8U,
  0x1d02cc1ff1d6b7eaU, 0x1eec01f2d3eb1905U, 0xe7ce26fdfcea2bffU, 0x5f409fbd7f30a05U,
  0xf0fbf3dcf5220af0U, 0x21daefda2319f511U, 0xfa11f7fa0908efe8U, 0x3114e9211032da02U,
  0x9e8bbe915f5f8dfU, 0x91e04e7fb0a041cU, 0xf8ed08f8f5110cf9U, 0x8e803e4f8e8e913U,
  0x20002f2f807271eU, 0x1f1bea2bdffa12f8U, 0x1000181905dfd4U, 0x283fd12805e9fc01U,
  0xc0fd27070802f5e4U, 0x1502250fd9e735e9U, 0x4c0323daf5f11a1fU, 0x190520f8cd271213U,
  0x2fbd2bc8c8070b2dU, 0x1af92b1ff105030fU, 0xdef2daf0e6f7eef9U, 0x2fe8deefed120c81U,
  0xf52f04e6ef0bf5ddU, 0x30370ddc9ee7ebf4U, 0x2edffcece4e13c17U, 0x37289f01f005c2d8U,
  0x404f8bc0101fa21U, 0xe92dc409f8fb1165U, 0xe12e164fdfea0b19U, 0xe90ef70117cc0b57U,
  0xe82909e2de1e232bU, 0xd809dbffef0fb720U, 0xefa6fa2e0b0e1941U, 0x2c03eefc0426d623U,
  0xdc1a14c412f1fcf6U, 0xe70204510b2f2800U, 0x2def100cb5f1191aU, 0xfaf73b02d3fb1b19U,
  0x2bcfc6e6a4d6fa12U, 0x28060c08ff360d14U, 0xf5bc08b41bcffdedU, 0x180cf00df8f1fe02U,
  0x2a1df3a9fa07ea07U, 0x19b2f5fa110c0ec2U, 0xee0414f0e8efbbd6U, 0x2eb2f0df1b0cd8ffU,
  0x9ebf3193ef3a9c8U, 0xf0e9e6111f06db1dU, 0xf50309ef0718fd00U, 0xece81be80b080105U,
  0xf4ed060815ee09f3U, 0xe4020e0fef171befU, 0x14c7f6e9e8e1ee00U, 0xefa0f13191a15e9U,
  0x9ebeec2cd04f8f5U, 0x2080d0d131e1c08U, 0xf11af6090e0b0703U, 0xf307eff8090519d6U,
  0x7e6fdf9fc1029fdU, 0x3000c0addf30f81U, 0xeff2fa0c04ecddU, 0x19f8020df20416aaU,
  0x18c5c9d80cfddccbU, 0xf4fe0f10fe0ff8dbU, 0x3f60be20c1ef812U, 0x71b130bf00401deU,
  0xf6dde9e5f412f9f4U, 0x11f9e718e7ffebc8U, 0xeffdf3f712d306f5U, 0x13fbdf170203f0f1U,
  0xf80204f9141e2609U, 0x21eefdf6160ddeeaU, 0xd8eef5ea050c18fcU, 0x1e13e305f1291ad8U,
  0xf5e110cdf222f90fU, 0x3f1e506d2db16f5U, 0xeb190b04e0fafbe9U, 0xfcedf8d505eee801U,
  0xf0110b0920f517f9U, 0xf322e0089819f0f1U, 0xbf2d6acc7f9c3c8U, 0x100cae36dc12fff6U,
  0x24e0ffe7fcfb12dcU, 0x11cf2f52a21c601U, 0x1bf531fcf7ea1317U, 0x14031ed30ec21169U,
  0x19fa1ef5bdd31514U, 0x2f090bbdeef91aedU, 0xfe02e02202ec26c4U, 0x8e3cba51337cf00U,
  0x18601d01f1b5fee6U, 0x14bed0d7ef2af31fU, 0xf7ef20f8f6df0b0aU, 0x149127d8fe27192aU,
  0x140c06e3acc49f0dU, 0x8f2e71beb1f2ff2U, 0x2de21d55c20216daU, 0xf1f3abeefb32dd11U,
  0x1517ec0a15db1df1U, 0x3abe17a7ffed0e0eU, 0x231f071f25f6e32bU, 0xe5874ead0619ebf6U,
  0xe53adbc0f409fbaeU, 0xe91c2327d20e2cedU, 0xfcf321cfe0fe1910U, 0x3cd006089a031618U,
  0x16f9eefbe6f4f10eU, 0xd5dc31c3e9c6f2c9U, 0xdc33f3cd1d06e40dU, 0xadaf1786eccb81c2U,
  0xf9eec8fc094216fbU, 0x6b1dd7f4240030ddU, 0xd033d7e71d0be2b2U, 0x1525c8eb2817f8fbU,
  0x364cd92dfad8ccc5U, 0xbdd01ad6bfdd26d7U, 0xecf41b2046cebcaaU, 0xe8430124f2e71d04U,
  0xe02afd49e5c40a2bU, 0xe8ccfb0a28d30afaU, 0xd709d01d2f0b00d2U, 0xee31f72b3b202607U,
  0xab5ceffef9ee5adfU, 0xfc2f2a09a5c533cbU, 0x32e42ff24e34e6fbU, 0xd229fbf2f5be0c0dU,
  0x1dbae5e681cd740aU, 0x1001f413e2f1190bU, 0xe705f0b70f4628f7U, 0x1a0df81dcc2a471bU,
  0xc021a1fb5f543f0U, 0xedfd130cf507e3daU, 0xc0efcbdeefe926ddU, 0xeb32cc0ff62ac5ecU,
  0xcdac7f90398f1ffU, 0xfbbfd0dccac201f7U, 0xf20bc5e332ccf915U, 0xd13bed20f2610bf7U,
  0x126015be901530bU, 0xd08e3e5e4dae726U, 0xf2e0f41422d1d829U, 0xe1f31b81e0cfe1f9U,
  0x2beb0507ef0ff928U, 0xd3edd4f9bbc04bf4U, 0xfec18b80a05281bU, 0xf306ff1f1a2034feU,
  0xeb71e7e104235604U, 0xfcfe32e3460414f6U, 0xf00eccdff813e70dU, 0xc4d017bad9c0c0dbU,
  0x9c5f3ff1d181e03U, 0xd9bbd9c800db1213U, 0x1afae5ffe9c12dd3U, 0xfeabe2e117fba5e4U,
  0x54cf330f8e9c1fcU, 0x9d5d0f73e41f8f0U, 0xb048d123ff20d30dU, 0xf50c06beeac21ee7U,
  0xe503cde60adce525U, 0xa728cecad1bd1410U, 0x1c24fbe2b2c12c4cU, 0xeef120baf3e8fbe8U,
  0x18eae120e9d6e334U, 0xafdb05ef0d0c21eaU, 0xfa16f61d3825ed39U, 0xec1c12f43040d8dcU,
  0xeaccf6060234dc2dU, 0x2342c1f1c8d88699U, 0x4df7ee2881b2360aU, 0x3347fb060bf1f5c2U,
  0x1f38e641de9d1133U, 0xd1350dd815f701c8U, 0x1817cf011feb21e2U, 0xe8ed0528fc100630U,
  0xdee192ce7101818U, 0xdefb2445e2f139c9U, 0x18ecd7bde6cad2d8U, 0xf7122b01d924e5c9U,
  0x2147e906faf90fd8U, 0x13f63405161bf610U, 0xed36faf823ea0017U, 0xc1aed0fed1f0525U,
  0xebf72204f4b30bfaU, 0xacd014e1eec5f125U, 0x121006bfe3dafd0dU, 0xe8f21b0615fddf14U,
  0x1a2d1c322ae5fd14U, 0xf1e2de1d1401fc2eU, 0x1026ef12ce07ef23U, 0xea32f014121a4126U,
  0xcffc04faf90cf646U, 0xe40af1ddca0cab07U, 0x4dd0da08e2ba0119U, 0xf90704021d2729f5U,
  0x23c9ccef15f2cb11U, 0xe7fafa360eed0205U, 0x30f4e8f3cc06fa07U, 0xfdf527fee8010de7U,
  0xf2f9ff05f003fde2U, 0x5360dbf481f6c8a1U, 0x37e1f83391ec6903U, 0x5d0ee0e9feedbcbdU,
  0xe91efa58e7e14204U, 0x25f7f9e94140f5f4U, 0xfd0af217e3f0201bU, 0xeba04dcfa31e716U,
  0xf9f7e0f3f9e8efe8U, 0x1d914e200f918ecU, 0xf825f9f9eee54718U, 0xafe0dd819d713f9U,
  0x1bf91ef5f0170721U, 0x2a10f203e719ee1dU, 0xb02f1e2c7edfb01U, 0xed47ec31061000d7U,
  0x2c09dcf4f509feedU, 0xfdf5fbf3f8f9e719U, 0xfe39ccf51503e5f8U, 0xfaf9f1f00c170c12U,
  0xf909f7fd04f42312U, 0xeb28ee04eef5db3fU, 0x10fd07f8e034e11aU, 0x1921f30ed41504fdU,
  0x4bde16f7bf2d1409U, 0xed08ea03f50ee7feU, 0xddeeea1729d9f818U, 0xfb01f0f81d190517U,
  0xe701f3e9eb2d0d22U, 0x35edc900c90af519U, 0x1202fde80eedd612U, 0x12e1baf6f009cf01U,
  0x1cfffd0df7c2fcd1U, 0xe60deb0efd260e03U, 0xfdd110e1f752d7e6U, 0x321eee14bb3021f7U,
  0x2d024f6c42a11f3U, 0x31fb0d18ce1b301eU, 0xfef034268102bfd7U, 0x48dbf3e001edf409U,
  0xf80c0cfb2df73ad6U, 0xd3e3afa0a72dfcfdU, 0xcd9e4a31d28947e6U, 0x3fc2fda725d63f1fU,
  0x873899ec8ce4348dU, 0xc419aa04ee9cb4dfU, 0x45f8f0beda1899f0U, 0xcfc581e03932b75cU,
  0xd9a624014e2050faU, 0xf9b30ef34fbe18cU, 0x9df5c41843ff9998U, 0xe34e2b8dd42629dbU,
  0x22e32215a61cb1eaU, 0x2b1cfecb9cbe909bU, 0x95a53e97e310f20fU, 0x8c04f0e0b196e0d5U,
  0xc10991a2f13c31bfU, 0xb49bd802d1f09992U, 0x8ddbcd15fcecfd08U, 0xad72c600a9134a30U,
  0xacf391a434cb2683U, 0xa7ad2db435dfc4aaU, 0xfce69d22af2d192bU, 0x3402ec00e7f3ece8U,
  0x422d30d8cb12eb08U, 0x18bf07fadeb524b1U, 0x462811d7d050add7U, 0xef211ce5124ac0fdU,
  0x1a1741f6d5a7c7e7U, 0xf2b6cbc3bddc99d3U, 0x2230ef52cd3947edU, 0x28ff12dd97c0300eU,
  0xf73221a3a50c1595U, 0xeef033f8f90663d5U, 0xed35ef0be8f50be9U, 0xdedd06eb2ef2f8d1U,
  0x139d1042b1505eaU, 0xc024efe738c9f7d4U, 0x57280dfa0af308dcU, 0xc82901c5f0da0125U,
  0x40092a06fffc0312U, 0xe102e5e614e109d8U, 0xf400e1e6fdf6f0e1U, 0xd3e6e404c3f6f6ebU,
  0xbd0aef020625363fU, 0xf636d016d8fe133bU, 0xdad115fdbc2c382cU, 0x12255703d4f8f37fU,
  0x27d408d0defa0a1dU, 0x537e915c2190bbcU, 0x36e6f2d8c10dfff9U, 0x1303f905de26dae4U,
  0xf4da120c05f71414U, 0x30f5eee5092108e6U, 0x41fee408d923fdf7U, 0x2eebec3080adbecU,
  0xe5ead60cd8f6cac0U, 0xb072911abf9049bU, 0xf0da32ddd1be35fdU, 0x5110a2a8e15faf8U,
  0xf828414104f62306U, 0xd51234fe01f61a12U, 0x243d23edf03f20cdU, 0xebf5232c05ccfdb6U,
  0xc090fdc200313f0U, 0xfdd026d621dc021eU, 0x16012a3cfa31ebfdU, 0xe694082c26072b07U,
  0x49fa1148efe5f11dU, 0xe1e01b07c1224a1cU, 0x22f50216f1f3bfd5U, 0x21ffcee3ff2f05c1U,
  0xc145aff80436b5bbU, 0xed120bafe78137faU, 0x3cd5e809e4cec8c9U, 0x23cfaa9f9a0e2f1U,
  0x54d0d960e3020aecU, 0xde18e8f5b9baa9b2U, 0x370ac51b15c819d1U, 0xe10516e9140cf5f7U,
  0xf6f3191e2e0a1cdbU, 0x928dae4f72fcc30U, 0xabe517ee1145314bU, 0x3113bedffe9ecbf9U,
  0xabc21e2fce0f342bU, 0xd110d6f80ffcbaf9U, 0xedd8d72d20020efaU, 0xe6ece804e1b8e21cU,
  0x2412f4600e011706U, 0x95c222e7111f182cU, 0xe84937fc3ef4b4ebU, 0xbd03021bf41316daU,
  0xf5cfd1c1c805d8fcU, 0xdd3c0328d503eeddU, 0xf0cae8ec3bd5c94cU, 0xea5ee34b2efa0d0fU,
  0xbffef4daf0205055U, 0x1f1a8f052b61a3ddU, 0xd547980d13febfbeU, 0xfbcd81b80cfadaf6U,
  0xbe28d3281fedd6acU, 0xbc25d6bc1c0019eaU, 0xc83f3f201ee0f3d6U, 0xdb4a08fae8ae3615U,
  0xa2f394413cdea1fU, 0x5e0dea080b37fa11U, 0xe62216fa2347e7f0U, 0x46352522c822f51fU,
  0x9e231e0708392806U, 0xf6f4dbf6e4bf0cf8U, 0xc9d548df110532edU, 0xcf138f9f6b9f625U,
  0x10e164bbf23d353fU, 0x17f92704121bdf19U, 0x134312421d2813fcU, 0xedffec0e0c09e215U,
  0xe62d05070016feeaU, 0x302af224fdfc080cU, 0xc405c906bf19fcfaU, 0xfc101a13021934d8U,
  0x32a8f3e5baf3d538U, 0xd4fc0b1bfc15fb1bU, 0x29ccfcae205f4e5U, 0xf0eb120710062021U,
  0xf30ddcea0afce903U, 0x11dbfe010308fe06U, 0xedeb1016eb09b732U, 0x43d71f10f40f14ecU,
  0x19f925c0eb07b902U, 0xe092550ab5d4f7dcU, 0x3bbe822c1af03f7U, 0xdcd5e339a7e82e26U,
  0xa0b0042c3e314dd6U, 0xd9133ae549dfcf35U, 0xbde307a12133098cU, 0xfa07a3f7a521a5ecU,
  0xc20e2ceb17b8b329U, 0x46c23ed3e32635b9U, 0x17c7091cbfb9cc98U, 0x9bf1ba36ae3ab411U,
  0xf71b0f86a8cae34bU, 0x31b5fac9f1e3a92cU, 0x9c24d7932f07e325U, 0xd24ecdbcef09c946U,
  0x3d353949ae179f91U, 0xac1ef23c00904541U, 0xcfa8cffa0fbdc2a0U, 0x3c81a4bc3806c201U,
  0xeabff0ab9e4bdfb2U, 0xbd4e9b31c44b2d8aU, 0x23d5c12519b13ae9U, 0xdb9fb79141303caeU,
  0x32a32c46971e544bU, 0xd9a8dbcaf6bbfe98U, 0xece19be3208d12d3U, 0xe1e4f5dedaab22bcU,
  0x3da9ab3cea4c08d2U, 0x9d01d329dbeda4deU, 0xeca015092fcdf8e1U, 0xbb09a8adef9aff46U,
  0xfec3ffd6fec4f939U, 0x7016edf60741b8ddU, 0x10399b301730ddc0U, 0x16fcc2c21b01c7e0U,
  0xdde80123fb02c9a9U, 0xe9f492e1eb4807ebU, 0xd10312eb2d00a881U, 0xea13c8ff1d4f2defU,
  0xb00c1ffffcfecaefU, 0xe901dc350c141503U, 0xb44a1ed5195009d1U, 0xed22001fffea1a04U,
  0xd8fae8de052b331bU, 0x180de0fdfdf109e0U, 0xe2e444be21d9f9deU, 0xe8d0064b0f295006U,
  0xabf7020ae6fc02dbU, 0x3ff4df71bf61be0U, 0xc2540ee1af0dc04U, 0x14071a074f3bf2efU,
  0xdad721cfb737193dU, 0x11f726e61317f0d1U, 0xe90fccda17b6f5e9U, 0xcce6f4e52300daf9U,
  0xbf13d8cc53280dc5U, 0xfd0a33dc39b0dbeaU, 0xa18ce0b26d7c8f8U, 0xf8e9d2fffc24e7d7U,
  0x73509ea1769a9efU, 0xc4eef7f112daf9e7U, 0x12f7fd01170e11ccU, 0xd22efe09e73dfceaU,
  0xe5f81e0c1c172bb8U, 0xa70d89f400d9ee08U, 0xdbdca8d6c806ed09U, 0xe705811614de0ae2U,
  0xcb1cb8e70205d106U, 0xefcbc4f029e50702U, 0xe907da0721fce0d8U, 0xfdedf614fed8dbf4U,
  0x251fe03f28252fefU, 0xc838d03a1ce6ffd5U, 0xf5c1e6e7db0b0204U, 0x41f0afaf9ebbae2U,
  0x1028e6f411c50724U, 0xcbc121c41c16b6e9U, 0xe82ae9102607f727U, 0xbd11cbd27f4fd00U,
  0xc313f1ec2af44610U, 0xf6c3efd6fbeb18d4U, 0xb2deecfdf1e7f20cU, 0xffeff7d52507dd0fU,
  0xe8f1e20b04cd0cfbU, 0xb8eeeef720fc010dU, 0x1b0313f9f30aedcaU, 0xcfcf13ce32dd10e5U,
  0xcbe1f6f00a1d03U, 0xe8e311fb10ee0afbU, 0xf12a321af7e1e60aU, 0xc5cdded10417e2fdU,
  0x209da0c1fd506dbU, 0xde16c201f1fef6f7U, 0x1b0aca2bf5ed1b12U, 0x161ee801d0f41514U,
  0xdbe8d4fefcf0fcf1U, 0xbccbe7f92f1ed80fU, 0xb5d7f601bc11c0ebU, 0xb91e0209270bc2ddU,
  0x1cc6c3ebc4f9ccc3U, 0xf5e905fcd0c5a459U, 0x22dfd514a418d202U, 0x1050efc241a2317U,
  0xd9f3d00ebff209ccU, 0x2600f4c8e5e0a1b7U, 0xd202dc08c5ffe2d1U, 0x26e5c029f4e813e6U,
  0xf7fb39bdaee3daa7U, 0xe9f9afeead14fba9U, 0x2d4fdbf21b3efedU, 0x21faf807cdecc62bU,
  0xddf6d6bdf58ff246U, 0xd6e4a1fd05c0fd07U, 0xffee1c13de10f2feU, 0x1de30fe0e2bfbcedU,
  0x8e217b71f2920ebU, 0xdec2e3fef2f1cfdfU, 0x2eeb27eea9e2c2d8U, 0xffa4ef1dfa40c9ecU,
  0xfeffedc716fed9fcU, 0xa215cd36df09210bU, 0xe95defc4cfd3b504U, 0xb30db8d9981db131U,
  0x150509b5e3ed0c43U, 0xda5edd1b4137e7deU, 0x16ba20f4cbcf3cecU, 0x2b29163181f828dbU,
  0xd2361fe9c5272418U, 0x81ebe1a9f7e7ea29U, 0xfd03180de9252cf9U, 0xf80003e8e6fc15feU,
  0x120df5dee234071fU, 0x2506ecff2cf2dd0cU, 0xf3f20909f4040d17U, 0xf00afae3e5e62b17U,
  0xafc0c25dc1a15f3U, 0xe5e8ec0e0103e91dU, 0xbea10e2e9eae70dU, 0xfbcff310c9021a08U,
  0xf2cce7dacde4e9f8U, 0xd1f00d160a070c49U, 0xfb1d1ff0dcea0b37U, 0xae2dfe8f900e7c8U,
  0x16f6e2de1ed3bcfcU, 0x1604040ff20736deU, 0x3da09e7d7bdf0f6U, 0xfcec291cc1b9083bU,
  0x1002f52606f2db0bU, 0xcbd21ad42106020cU, 0xef232be301f8fbf6U, 0xbbc6fabe16edbf1aU,
  0xef0bf5f64416d7c7U, 0x30b1eecdf7ccf1fbU, 0x173b0443d7e9f8dcU, 0xb7d816b632e8a40eU,
  0xe515c1491be6fcdcU, 0xb9150cff1f37e6f7U, 0x1eeaa60115dce8ddU, 0xc40cea0bf9ff1608U,
  0xf0d2c0d31df0ecU, 0x72a0926c218141bU, 0x49e51e0e1c20f007U, 0xf2b2006beeb0bf3U,
  0x29d313cc02001ee0U, 0xf4082d0dfdd2f00dU, 0xe7fee4d6330c0a07U, 0xefde05f3e71e08U,
  0x5011613211832e9U, 0x18fa10f30e161af5U, 0x1a03f02d07fd2807U, 0x705c916110c17f5U,
  0xffdac7cef812c1eeU, 0xf2391e183b061537U, 0x516f131eaf81925U, 0xf02715f900daec34U,
  0x40fe216e806ee0fU, 0xe712ff1420dce5c7U, 0xf1eabaf4eec40c17U, 0xe3f41aff03f000U,
  0xd90101bff9f4c8daU, 0xfb01f2f7e0ffe2f2U, 0xb3ecf0fc02182719U, 0x20e82914f6ee1c01U,
  0xc81dfe11dcfd1520U, 0xf0bfcfb6b9c281fdU, 0xe3f4b9c218c2d8cdU, 0xe3dcdfdb12fedb27U,
  0xc62001bc17e4e3b1U, 0x39cde816280d1bfdU, 0xdfd51fd0320dfec2U, 0xed3f9fa05de0805U,
  0xd312f11002fed9caU, 0xdbeed0e843dad429U, 0xb11b0b0f07dcdee2U, 0xf1e1cad8d20edc21U,
  0xd6f2eceb2e04f12fU, 0x2ed9f7ee1213f611U, 0x52ef769f323fd15U, 0xe10059d0fdfd00e5U,
  0x43dc0fffd4dbc9efU, 0x3ec1f22d406dc1cU, 0xbfcbccf05e60bc3U, 0x32f61c0bc832fedfU,
  0xf3f2ee17110132d8U, 0xed2009010408eef9U, 0xe80f17ee810d3113U, 0xf710fdd2e0bf96f3U,
  0x59c0dfb6baae20f1U, 0xd3990dd8e5cb1c2dU, 0xe61f351d0a1ef5eeU, 0xe4e220e829e51202U,
  0xc11092af6241b17U, 0x340ee6010c140ab7U, 0x36f0eff8b60cfd0aU, 0x5706d20ce407d5ddU,
  0x2adac9dbd0c4f300U, 0xf5f3de0040fb2821U, 0xcbeb00d119f9d518U, 0xfdf332050cfc0c0dU,
  0x1be7f1e404dde82eU, 0x12f22cefdfe400f8U, 0x1df3072ac31f9ef8U, 0x50f10cfc0bfbdb38U,
  0x103d1b172808cec4U, 0xb72b0c1353d2c2f2U, 0xf5e8db03f951ee26U, 0xfb2515fa0de84917U,
  0x8fbb1a0909f2472fU, 0xd25b523fc21ea29U, 0x2f81510cc3b2111U, 0x10f1e7e70e261cf6U,
  0xe5aa0c15b20423d8U, 0xcbdaf7fcebf9d1d4U, 0xcc3d9011bbbca0cU, 0xebf317dd1008fe0cU,
  0xe100051906fbfeeeU, 0xecf46312ebfe0bccU, 0xcd0dab838dbccfeU, 0x1525de22f520f4c4U,
  0x18ddf6c80939d4f1U, 0x142fee35e62d1c05U, 0x4271dc117f30824U, 0x61116d6e83cd9U,
  0x2aa1fefcf40106eeU, 0xc8ad23fffbd40e04U, 0xdf19da24702afc0bU, 0x9c29cc513efd0a1dU,
  0xbdea05fe6424251cU, 0x8283b0420f328aaU, 0x40cff51b0d0cccd1U, 0x141517c9e70028b4U,
  0x1ad1fc5d26e5c900U, 0xca08d2d02be1d750U, 0x1443d62e26f92cf6U, 0x8111fdd0403bff00U,
  0xefe12c2f61ff444U, 0xe606dbfb2022d910U, 0xdad217f0193ceef9U, 0x290f0dfd23fb041cU,
  0x2f947140df011e8U, 0xf40ae93300d952d4U, 0x43cf1af481fb0809U, 0xe6251edcc1eaecd1U,
  0x3dddfdf6b900e70eU, 0xfbfaee30090f2f04U, 0x2cc23d7d42ae9e9U, 0xf051117d70754c9U,
  0x18c6f2f8efeceffbU, 0xdf023527f5fb4d98U, 0x1be90d06ccd43af4U, 0x12f033fbf02400fbU,
  0x70604ec51d2fa2bU, 0x37071ee1ace71fb9U, 0x2ce91208c3f60f2eU, 0xfe1730d4d1b8de14U,
  0x3caee93012aff31bU, 0xdfb819ed0c39f7f6U, 0xf20bd62503cef1f6U, 0xeaec3222fd0a0cf9U,
  0xefcedf75925ccf9U, 0x1dee0f0103e7ebe6U, 0xea6b2635fbe20908U, 0xd24f7f43c0301fdU,
  0xec06cf521dfdda0aU, 0x1c0ef4d91b11ed06U, 0x5f4d428cac41915U, 0xcf0be2e2d3e1ed2fU,
  0x406fee8f8130318U, 0xc4a3bf831b65fc7U, 0x40ec22d0c4054d07U, 0xf719f6edfd1ed10dU,
  0x692af017ee0c170dU, 0xf3073031427ff509U, 0xe826d63c30edcab1U, 0x1df3ddff06dde8efU,
  0xe029e1e84227eddaU, 0xfbee52b40af70cc8U, 0x19cc15f8f1cc0540U, 0x5dafbe70a09c323U,
  0x5cfd3dc0bd920ffU, 0x2602a011deeaca36U, 0xa23bf6deef84b3cU, 0xf71f07da0cf8e054U,
  0xc228ea1ef618220bU, 0x17e2e3beedc9b1f0U, 0x2cc1f0be3cdfdfaU, 0xe1cda0db3825b31dU,
  0xe1172bbdd014010cU, 0x1130d046fb2125fdU, 0x130c2602c3bb3a36U, 0x2b3affe7c7ee2e0fU,
  0x4fde4eba0d325e9U, 0xe7d712e01b140e4aU, 0xcfe1049e4c21ead7U, 0x20e0fae7f9f02a4bU,
  0x15082bc8112c1dfcU, 0x4dc304de26e804c6U, 0xf8ec2cfbcf28ece2U, 0x530029fff242ca93U,
  0xe2ecf61748f3cac2U, 0x32e8daa22a0cc8ceU, 0xbbfc070ffbeb31e0U, 0xe60ecfcdf90bf332U,
  0xcfbcb250b1f1f04U, 0x1301c2d9fbe2eefcU, 0xf021e8cb08ef0e0aU, 0xecf2e5a1250b1c24U,
  0xb33afe11f8a9a316U, 0x3806eb10dff6f945U, 0xddf222db3a0cda24U, 0x1f14f123c70525f1U,
  0xb90f1dbe042beb35U, 0x26ebf019d1052032U, 0xe92fecd50c02e8ebU, 0x3f1c3f8df0a95dfU,
  0x312ef302905d2afU, 0x393b23470b0c4801U, 0x120724d3e244ec35U, 0xfe131339dbcb4722U,
  0x350b3921a814ecf1U, 0x98d2323226020ff9U, 0xeeeb0497d6f2fd1bU, 0x9d47d57f1a4b0a11U,
  0xe393c2972ff0d80eU, 0x1eeb61d336e52398U, 0x2b042347eacad2b8U, 0xe6e354b443c7cae0U,
  0x1adeb530192eb5cbU, 0xc4b336bc0c24d0e2U, 0x530bb9e215e797ccU, 0x9400d239d2422af2U,
  0xefebc064339b4e8U, 0xf7fbb08cdfed421cU, 0xd90bce0cb3cadda1U, 0xb1b910003dc3fbeaU,
  0xa9c22edad8afc4aaU, 0x98cdf4cf20be9ac0U, 0x2fc92b579d172bacU, 0xbba9033ad4daaeaeU,
  0x9ae41c19e722c7d9U, 0xeab432051a049b84U, 0xc0bd9ab0071ffcf6U, 0x2ecc6f4b6decfe4U,
  0xb344bfc1b2c5ada1U, 0x97b9ae1fdeeeb7fcU, 0xd0ec0220c0bc9192U, 0xa4c4c9d203ea9332U,
  0x5dc05491910beb7U, 0xfc9633bc04a6c2c0U, 0x3a34dd0a6b898d4U, 0xaac9d34a36e630a4U,
  0xfa8d3fa2b4f3c0a0U, 0x6d5eef0d735b248U, 0x18ee55971c4f4aabU, 0xb9d13fb2d7ccd79eU,
  0xe7aafbd3ce23b0a2U, 0x1708d31fd417ebb2U, 0xb6fa25fe81bf04fcU, 0x479a3beefdcde82dU,
  0xb21ebdd40a0cb62dU, 0xae1cd9effd14b4cfU, 0xb1081b2e16520b04U, 0x42facee304f827d5U,
  0x4114ce113a2cf51aU, 0x47521d2cd55e0709U, 0x57e813ab15fbd407U, 0x81219fcf45800ffU,
  0x19c9ed91fcf5ecf6U, 0xf816271105eb0fe1U, 0xc0dff39948ddfe1cU, 0xece725fe30edf8f3U,
  0xf5da00e8c902e149U, 0x7f0625fee71128daU, 0x13defb2701202bd8U, 0x34f704dcf11410b3U,
  0x1e280cdcff1319e7U, 0x2a141bf0f2e904e5U, 0xfcfb0d19fbf10adbU, 0x1d310832e6194d03U,
  0xcedf3cedb02bfa33U, 0xfb06ea1517ddef47U, 0xea3b0e1426293f1eU, 0xfc2d0a01e5da0504U,
  0xe92ae9d41a16f5c7U, 0xaec0ac4feef08bdU, 0x5ff0dd4070b3e06U, 0x181c551ddef9121eU,
  0x9e70fafc308fc3fU, 0xc2d7203217f3e606U, 0xe0efc5e318e4f1cfU, 0xf012fc2b09dc250eU,
  0xefdde910f2ec2305U, 0xfdecf1d104d2dff5U, 0xe91dfb0906ece1eaU, 0xffb8faece6ff182fU,
  0x17dc0c1417e1e12eU, 0xf008144e9aff39e5U, 0x193cf6e0f0d20bf4U, 0xf1ef52dbc16d7e3U,
  0x24f71aa9d2001df8U, 0x2aef513b2204ec11U, 0xfa2a22d52b37062bU, 0xb192f03d214ecf8U,
  0x1014fadf0d1e0915U, 0xdbe22fe909dc3ae3U, 0xff2b022cf1b81bf8U, 0xdab104ca3e2ac706U,
  0xebfd08bce1a90006U, 0x312fee22f11e87fU, 0xf4320f29f3fe06e0U, 0xf13527f526f71f1eU,
  0x1c25e4f29ae19ee2U, 0xc41df5f612f7f6e2U, 0x1d09e914e9bc2d2eU, 0xf1ff04dcea000a36U,
  0xf922d7f21acde11bU, 0x2f8d6240916ce0bU, 0xdeccb0dffefe7faU, 0x160ae5f3e13025f3U,
  0x2ff7e5c6bee4bae7U, 0x60398dbb601bcd9U, 0x40c2db30dce42a38U, 0x49f7bad3ebd0c6e8U,
  0xf0b07170abc0720U, 0x44e4dfb8ed29ede8U, 0xee1ed2e639ede5dfU, 0x1ca2e8b518dbce00U,
  0xf530e1103301d7e4U, 0xd200fef31a04ce09U, 0xf9330bf91ee4191eU, 0x1de5ddf4d3e5cc02U,
  0x5cf2df1c62b2817U, 0xf917d6d8f4fdd306U, 0xc60ff9e6cc172324U, 0x35de35ee1124c5U,
  0x17dfd2b9b70e1506U, 0x4530f9d60841d424U, 0xf12900f00b08f40bU, 0xf218f7e4121d000cU,
  0xfe1b0dd70bfa221cU, 0xf805f1f600f6010eU, 0xf7010a02de08e608U, 0x1fee315da030af4U,
  0x3e230c3dc1e004daU, 0x21f4ef17f2251c1fU, 0xda04d834f9452f10U, 0xfdff4fc1a37ee2aU,
  0xf813e7d6e3071119U, 0xffdbf219e9ff0d02U, 0x250700eec6fcb31cU, 0x26cb11dabd03d946U,
  0xbede51381dcd4d8U, 0xec4e1c48ee4c0f07U, 0x1bc6baa5f915eee0U, 0x4f301021c52d32c2U,
  0x22f423abee1315e4U, 0x31b903efadd613d7U, 0x262829fc8d0ce0ebU, 0x3dc9018de7dae9d7U,
  0xa011709192566e7U, 0x27d117a4349f3bcdU, 0xa3b13f0e210150bU, 0xcf0d7e81a02e701U,
  0xf73bfd0ae3ee01e7U, 0xb0af9002334f0feU, 0x1cf8c1fd2803e7c0U, 0x2fcdb0d2613e7cfU,
  0x11de1e3f11efff7U, 0xcdbb22812ac62a11U, 0x16091100f1d8ee27U, 0xd8cce8a80fcfb22eU,
  0xf12df64408c6da10U, 0xf6e9b9ee12e2f124U, 0xd7f3ea1616f7c7e3U, 0xfb1205f43be80414U,
  0xd524f3ec132c4afaU, 0xce19f2a1cae9ead7U, 0x28c80d11e6e61c48U, 0xe709e9bef60ab50fU,
  0x3eef41404f5331bU, 0xd707e70ae4eb0f10U, 0x2910e4193cf0d7ffU, 0x105f7fb0ec6f734U,
  0x17ee1331242709e3U, 0x2df7e4db0219ee0dU, 0x3031330fa04d8f1U, 0x412dbe3fa19fe20U,
  0x52524f21407131aU, 0xd018022b0410ef0aU, 0x3cd1f8f7d0d6220cU, 0xec321522eae7de15U,
  0xeeea172cea062206U, 0x3001c22811c0cf4U, 0xfedd02b7e6f62ff5U, 0xeaf720f014040cc1U,
  0x1047091621002d02U, 0xddc043f450e34bfdU, 0xed100c0b4bdffd1aU, 0xcbc351c116d19d35U,
  0xc6f8ff1514c6031cU, 0xfb00100d03eff6fdU, 0xece82905241c1f1aU, 0x29f4ed08f9d6e4ecU,
  0xe42d133f0819f4ffU, 0xc9e7e4f91f0b03ecU, 0x11f9f9f03c1f0914U, 0xd70410241afd2114U,
  0xd4ed120d05f0183aU, 0xe625fdff05d707f4U, 0x8442805d5e00921U, 0xd3070d0c1717f1eeU,
  0x1cd2e0d21ad9cee6U, 0xe020f7fb07ff09d8U, 0xf5fa00ed190e11e2U, 0x100a32ebebd03adcU,
  0xede326eac5220735U, 0xf40813d129cab6c2U, 0x2c2ddcfed5a51a18U, 0xf20a03140928c6e2U,
  0x1023adee1edcfe20U, 0xc52904e43b091cf1U, 0xd110ecf207f61c16U, 0xe9db1deefc092019U,
  0xe5dff9f4f20b062cU, 0x810af514bea256eeU, 0xf70a3016eee02c0aU, 0xfd01f2c4dc91ed1cU,
  0xf1dadc16fb0b0634U, 0x3104d6da1f02fa3bU, 0xea29ec0a0b4510f9U, 0x13e9baf303fde817U,
  0x207c9031415eee0U, 0xc8d001e8eae2e1e3U, 0xdc23d62015d1f90cU, 0x33badbdfd7eee50fU,
  0xbd0bc7e7e9b717d0U, 0x141eb1ff002efc4eU, 0xbc26ed2ebb3e0d09U, 0xe51bf7ece5d10315U,
  0xe6fdb91ad2e79faeU, 0xba14dffaee132df5U, 0xc8effb4630d9efdeU, 0xdfb00ac808ea1942U,
  0xdf0b3afaf54efef0U, 0x5ce2e7f42808f5deU, 0xef00d101f6e3e202U, 0x42eeb516003a043aU,
  0xd9ebb516e4c8d1bfU, 0xe932f42d132af127U, 0xbda0cf1222cf408U, 0x24c9cfdbd52e22eaU,
  0xff0118cdcd273912U, 0x34a6f00bf6f827f8U, 0xd522161ee6d9d4a8U, 0x4c88cbbb05fed800U,
  0xbf4d10c74108ebe9U, 0xd4b8f1f0fbe7e91fU, 0xfaf6f5091bc1c4f3U, 0xd6c20ddefecb0df9U,
  0xdae2e00d1111f414U, 0xd00d00ab16becd4eU, 0x8e4150afb1d4d5cU, 0xe03247e0fff907fcU,
  0x5ff31019c3cd2920U, 0x21e7f0dee82a110fU, 0x122f52ff809efecU, 0x4dfc6d6091b0923U,
  0xfb2bfecbd9ee16f5U, 0x25310930f708f80dU, 0xebe524e4c0370d24U, 0x22f70742dcfaec23U,
  0x4b717fbbfc6ee10U, 0x3d29e106f03326f0U, 0xf43bdd0e37ffd9d4U, 0xefe0dddcf62316ecU,
  0xef123cb031b27f6U, 0x44bd0bbfd8fe24fcU, 0x21111e0509d0ff24U, 0x57adc4b7f619facfU,
  0x35ffec19f2c6afd5U, 0xd42c0019d01a0af7U, 0xb90f0ac30131c50cU, 0xf61305fe052822ccU,
  0xe90622d0ac6bf3f1U, 0x22e80b03c0d529e3U, 0x18173b33a5bd1df3U, 0x348ef3811fb2b308U,
  0xc673bed4c0c26a8U, 0x922c4112ddec8ecU, 0xc20afef62d17c4e3U, 0xa504f00f30ee25edU,
  0x4f614300108f90cU, 0xb548071c14d40509U, 0x69e71535c9f82c12U, 0xd81e6c24e2d8201eU,
  0x33c2f60eb0123010U, 0xda030b24232460e5U, 0xe727f8f6250dfdfaU, 0xf819eefe2eeb15efU,
  0xebe514151bf5293eU, 0x80b2dde04f2dfc1U, 0x1e9ff91304dd3718U, 0x21836fae60ecdebU,
  0x268108f2c0e408f3U, 0x91200f0fffd0de5U, 0x1af829de2feaefc6U, 0xee1bfc080ed61fc5U,
  0x1be1f0ca24f40806U, 0xbfdd60eec0701dcU, 0xb01ee0fc31000f5U, 0x24ffddf0050418e4U,
  0x807f72404ededeeU, 0xe9d7050bccffc9acU, 0xebf9e616d2d7ef00U, 0xfa2def03f629efccU,
  0xaf7e3e519f20305U, 0x220af7f3d6dcffdcU, 0xf615dd130e26fdf7U, 0xe5e403ce02d9ace0U,
  0xf3f5f50511f313f6U, 0xac0fbb8bcbc1fe8U, 0x3e99bea5b3be0eeeU, 0xfbc6e7abebf4eeceU,
  0x1371150509cd08caU, 0xb8ec08df30cc0d09U, 0x530737361acc29U, 0xc6d80abd09ded82aU,
  0xa06f23ebe5e9cde0U, 0xe97fdaf48afcd4e3U, 0x138fead995e9ea43U, 0x11846ecfa0dde0cU,
  0x2104e22dea8f4c50U, 0x1b8e319da10e51dU, 0x12c8c0bdd11d2eebU, 0xb80335390f30ef29U,
  0xf9e7f0d3bfe62ed3U, 0x6440e3e8bf3acdc7U, 0x198dade0a90f3238U, 0x3a1817099f58e0aaU,
  0x17e7c1361aa62a02U, 0xd61413c4f216d0f5U, 0x2d10ff06f904eda3U, 0xc05e30008dae9bdU,
  0xb11ff7e2e102fad4U, 0x6626fc161f5115ceU, 0x1328381be8b7e8f5U, 0xe61ff315e72efbf8U,
  0xce0a0e1342f5cd32U, 0x71cfc1a06282110U, 0xea1a2f2e11fc241dU, 0xbd52d91217c3f8f4U,
  0xf3ea2b2dfdef4814U, 0x6f131df37f48c1faU, 0x2cfdddedbd3ddcf8U, 0x509b6f92317f7b7U,
  0xf4f3e1eed0afedd8U, 0x1700ef190749f9bfU, 0xd10cbb0000b6cbb6U, 0xfbce03f2eeedfdfcU,
  0xc80881a9e2dd9ecdU, 0x1b0efe07f8eeefa2U, 0xdff6c3f3f23bf096U, 0x2903d9bb10def4d0U,
  0x14dfeceb340cd9b5U, 0x22f2bfdde719c5baU, 0xecdbc21b06f20badU, 0xf3edabde0421dbc9U,
  0x1eb4c0e45300c1f4U, 0xc6f8dfc6e2fbbbfcU, 0xf210ddd00d21fbf8U, 0xfb20fde41ef9ce24U,
  0xcaf5d41e053c24e2U, 0xf21dbe05d7a706d7U, 0x21161cf42dea2a3eU, 0xf4ece408e8be2306U,
  0xf11930000f0a1b35U, 0xded0ccfae4d8191dU, 0xe2df2800515dd811U, 0x1103de03d337e835U,
  0xb6e8070a386944f4U, 0x502e206e8da1811U, 0x1e8fb10f8d30a33U, 0xec4832e10de3dc21U,
  0x1c25fa370fc121f2U, 0xf9d1cdf304eddafdU, 0xdfdb0bef133beb05U, 0x2c0afd15351e4909U,
  0xe9d409c4f8eedf0aU, 0x4ecf8f4d8dc32f0U, 0x37d90304c9f2ecf1U, 0xd4dd48ef10f50af7U,
  0xcf000f5b7fcdcffU, 0x10faf828fb0006dcU, 0x3e10ee9f3ffd326U, 0xde1a18f408172af7U,
  0xd81310fa020ef906U, 0x1ef326f8f70deed6U, 0xfcede1f01ce9e7e0U, 0x1fef0fe8e322e0d7U,
  0x1906f3f4f2b3ec02U, 0x3d561524b9f420d6U, 0x3cc807e30a1120f8U, 0xf41a2911cdc80dedU,
  0x23052ff8d6104210U, 0x1fee13e0f910e4f0U, 0xfb0be60902fde61cU, 0xf4e8cb132034d623U,
  0xfebf43218f0aeU, 0x46081afec70608c2U, 0x291a1afbd81d1de9U, 0x4b2a2902fde9f49eU,
  0x1dbf0cf3ec162319U, 0xedfdd8ea06031cU, 0x410e90115e9f8d3U, 0xba2db912272116fcU,
  0xae1adbd87f32dbf1U, 0xc7e99fea13cf8147U, 0xcd09c71839f7ef13U, 0xeadcd221125cee27U,
  0xc6f91ee740fdc1fbU, 0xaffd43cd7c71f39U, 0x4c0014010fd05e0U, 0xfff7edfef1f1f24dU,
  0x12ebf811e3d52953U, 0x4acb3b2d380227U, 0xb4e4e3f614d802d9U, 0x2ae8e21af32b040dU,
  0x91bf719ff1b17efU, 0x10ade00e41222c0aU, 0xc81b25011cf52fd1U, 0x27a40dcbe214cab8U,
  0xe40dc70034c4fecfU, 0xe3bdf74d35311135U, 0xfe1350062a51e0d9U, 0xcaee3229091231dbU,
  0xcf8021efbfcfdf7U, 0xd9bc35cb423dfee2U, 0xd21de01f800f4e8U, 0xf7bc1be942fceefaU,
  0xbfed1d8402105b8U, 0xfaf3fd3040dd35d4U, 0xd719cf2521371106U, 0xe01bf9083f1d17e3U,
  0xf9f8efcc0ee112U, 0xce1819e9e7f4fcdaU, 0x40fb14dbf8072cf0U, 0xdbe7fbdcf6332de9U,
  0xdf08f5e20816baeaU, 0x8df7e3b63481c620U, 0x9ceb092330db1dfaU, 0xcd1defea25b0d233U,
  0xff052e130cfefa0fU, 0x2602c3181af7fb34U, 0x2303d5efa3101b08U, 0x1926dc0dce1514eaU,
  0xdd0acced52b0ce2U, 0xd4e8a0e71822a424U, 0xc419cf340514ece6U, 0xeff2e92af0e6d8e2U,
  0xceb9c8ec8af2fc05U, 0xecc816011dfd040eU, 0x27fb0711d2dcdbfaU, 0x4af1b8c4f5eff0e1U,
  0xed1aebfcf6ec038eU, 0x970fa42a2e291bf0U, 0x9ed9eba610e4d4f1U, 0xd00b141413e43bf7U,
  0x10d8fb170f2aed13U, 0xd4c83de61af706f8U, 0xedf731f1f7f2ff32U, 0xfebffbc9f901a00dU,
  0xecef1bf901f7f9f9U, 0xd56d50cbc1035aeU, 0xff00edb90e060df0U, 0xf823101e162f1bd4U,
  0xdeff0ebd31a16d6U, 0x103b020925ffe8d5U, 0x1e8e5badf102528U, 0xefe1fab9fc2feffaU,
  0x17ecffd2e54b01f5U, 0xea0df6d1b108c331U, 0xffc0e6041556eaffU, 0x2a28f5fc192af42fU,
  0x9f70c0fe01c1434U, 0x2215fa1cb7ea3f0aU, 0xfd01400c42540efU, 0x170e5cffb62702e9U,
  0x70a0d07dbfa23f4U, 0xf4cacf03ff22c11aU, 0xe414224b05f405feU, 0x25c6c605231d1302U,
  0xd71c32fce323e90aU, 0x20d61015ecf92a11U, 0xf40836de14e202f9U, 0x2dff32deed12b9d1U,
  0x3b031dfff4d4ebe2U, 0xf70e0613140511fbU, 0xd70bbcf01eed14eaU, 0xdff61625fcf3fbe3U,
  0xee001f1ffcea18fdU, 0xe5fe25c217e717e6U, 0xea02100206204736U, 0xd1db2a0838f313e6U,
  0x1002e30d2109f2cdU, 0x1fd6f2ceebdb0310U, 0xea2b051f10e70df8U, 0xc9e0dfd1ad703ffU,
  0xe716101d26cbd501U, 0xfce3f7b51cd7b605U, 0xf8e1ad0c6fd7e823U, 0xa7b6cece101109f2U,
  0xecfd81dd220daa0cU, 0xd41414c40ac148e8U, 0xfd05293908cfe5f7U, 0x1a9d9d54726f533U,
  0xbb2e124120122215U, 0xe8f0f7012b4be933U, 0x15200247fff9df18U, 0xed60b27ecde0cc1U,
  0x17f2f2df300fc8cbU, 0xefe2ab433dae11eU, 0x22ede5d2e1f5b6U, 0xa14f9fdb1bf0bU,
  0x323dc01015bc2fe6U, 0x90194b52c3bccd0U, 0x2d070d18e71554f0U, 0xd9c5170ef21c0215U,
  0x1dd80ae5fce966d5U, 0xbbbbfbad11c1c3ebU, 0x872bfa0220c1f7fcU, 0xedddf0e442b6e6feU,
  0xa70efeff1528ce45U, 0x7fad19323e8dff3U, 0x204efbfbdd32ef2U, 0x171012f0bceada24U,
  0x36aeecfeca1af7f8U, 0x81f0fb042415f634U, 0xb31c1fcd17f4f9ccU, 0xa90ef4fa45323918U,
  0xe717f8c31332202bU, 0xc4241a19e3e4060aU, 0xe4f8fed9e34a0549U, 0x2c641b34c60bfe16U,
  0xddad0dfe414df38U, 0x1826b0e006b6c203U, 0xdc8904b61424da19U, 0x3a32f5f9f12b0ad9U,
  0x2214f6dbe5e91316U, 0xc64b405caffc1f0aU, 0x28c00ff3b5e23529U, 0xdd077f14b79d1917U,
  0x32ad35e0a5381753U, 0xebd4e9133df624f7U, 0xe0f22ce834cafc0dU, 0xa5ec15dd54ccf8e8U,
  0x2022130d04c20cU, 0x6f52cf1051bffe5U, 0x21e603f9db2afd1cU, 0xbfc4008dde4bfefU,
  0x58a81a16f4a8ba3bU, 0xe3d516f4fac039beU, 0x372440e7c60503bfU, 0xe12ee507d4c92bdfU,
  0x30e6f11104e131eaU, 0x31eee0f3d507cbc8U, 0xec2d92627190b01U, 0x2602c4f2160006ccU,
  0xe0dce63f18cdd6d6U, 0x220511d4b6ee01cdU, 0x3ef3f437c4adfaf7U, 0xf82e0002e2a7d328U,
  0xe25f346f9a21408U, 0x16fd06b2d9c5d7feU, 0x722d61f14fdf5faU, 0xef0ed8bf061ec544U,
  0xcc11e5551ece060cU, 0xd3e9c6101c0ba815U, 0xe421fadd1cf5dce6U, 0xe3e9e7f712fd0d1eU,
  0xcbc916ef2002f3f2U, 0xdd1b07f3fad201ffU, 0x23c82ffbe6d1fe29U, 0xfb113f07ddee0c2dU,
  0x49b322ef810e2e55U, 0x2b150b1f0f201a02U, 0xd61e131d14341914U, 0xe09deeb281f07e7U,
  0xf4e40bfe041300faU, 0x2ffe4e0eb11d608U, 0xedde0ef0e10bfa30U, 0x34e1f505da130af2U,
  0x22ad28eeade6fcfeU, 0x307dbeb1808f618U, 0xf5391b101a290ef4U, 0xfc01d002fd15fb07U,
  0xf918ffdd0b14f2deU, 0x6000bf2d3071efdU, 0xf2f81dfbe105e7ebU, 0x1ad0fdd0fff601dfU,
  0x24062708f112cae2U, 0xdef405fe10111403U, 0xf0ffebca13f60c1cU, 0xe115fe06fa0b29edU,
  0xfe111bd1b912e7ffU, 0xf30bf60feaef08ebU, 0x2b0d03f2b313e6f3U, 0x32fd06d7f1c4ec10U,
  0xaf8f3050bfefaf9U, 0x1fff0e0f161628f6U, 0x804ebfa09e01113U, 0xebdff1f52c172addU,
  0xb0b260118fbfb1eU, 0xe31a2df105e9fc06U, 0xf114e64339ca24f1U, 0x8ed24ba0ce4ae0dU,
  0x30dfeaf310174716U, 0x7f628c2f2a17dc5U, 0x1dcbf1000ff81609U, 0xf3c8369932aafa07U,
  0x1f0afb284901dd0fU, 0xe2e7d3e612e3b6e4U, 0x52ca908312b05dbU, 0xe6c1e4dc29dde0e6U,
  0xe81aed06170b40e6U, 0xe5e901e5e7bad216U, 0xfe30a0aeed7c9f4U, 0xd432d1bbf6e2af0bU,
  0x1a0bd00925b8dad4U, 0xbe338d16e9dd1227U, 0xcd01221c241dfbfaU, 0xd24bd40bfdc1121bU,
  0xda08055153090d16U, 0xb7f21ae91ce6cb0cU, 0xc61c23261745fa1fU, 0xa11911e51a03d924U,
  0xfc24e1cc11ea061bU, 0xb82404ff0e041febU, 0x45e002c7e91d393eU, 0xc82d48f5bc0cea35U,
  0x14811422a1d10c4fU, 0xc0fc031812f3cb5fU, 0x12b90f12ff55ed2bU, 0x19f90e161326fa2dU,
  0x1ad509ab030102f5U, 0xf0b309f7c52924e9U, 0xd6d4feb7cbf916e5U, 0xebf0618150df9e2U,
  0xd370100ef1e11fcU, 0x2013ef052d15bd18U, 0x21c32c0719271c16U, 0x46e9f1370e331edeU,
  0x61c060d17bee8daU, 0xc8db00cdfa32eae6U, 0xf71e36f4eae5eddaU, 0xaccf1eedf2e1fbe9U,
  0xf03dd72e1bdb2fdcU, 0xe8c6e6c11fa4ca3eU, 0xd1f1ff2bff3107aaU, 0xa0a07f5031fed0bU,
  0xd53d02e704e9f0b2U, 0xe9e2fee7fa011ed3U, 0xf00326d11edc06d3U, 0xd7da2f03b0d9050fU,
  0x190af104d6e8f428U, 0x9bf7f5f355d5335cU, 0x81f91e844526150dU, 0xdf1810e129db192dU,
  0x1ad9039406e450faU, 0xdcf913d2f5e0f818U, 0x10ddfb2fab0c0609U, 0x32343139dc011b06U,
  0xd5d6001afdfe05e1U, 0xe2bf32d95b23edebU, 0xd7492d320ad80714U, 0xc4e6fa9606e0c71eU,
  0xef0d0b5242ee0efaU, 0x4fbf723f612e120U, 0xda00ca332a153216U, 0x16fb13d002fc5f46U,
  0x22f5f223f9d0d43eU, 0xf7f1c4372247091cU, 0xbe2710151410dde9U, 0xf61ebb2fe114143dU,
  0xdfb30fe30d3ede0eU, 0x3820c9cce4df1e2eU, 0xf7ea4b34df044d2cU, 0x1854f6add3f9f71dU,
  0x3f30cf2f23f0566U, 0x1c320d2c180acddaU, 0x1e20e19607f8ee1dU, 0xf127fd10e9254e09U,
  0xe20938c9cd240de7U, 0xbda27fad1bc104cU, 0xfcebf9c316fefd3fU, 0xecf9caf7f61204feU,
  0x24d30be3f7eedfddU, 0x31cee800dede082cU, 0xe1e5d6c812c83b08U, 0xdb9eae225efd332U,
  0xdc3deffff6fe2317U, 0x39c4e5dc29d4b330U, 0xddfcd7ec21d9ae10U, 0xf7daeecc0b06173eU,
  0xf62de3d802fd81c3U, 0xbae101d1ee1dde31U, 0xe52812fa0fe91c01U, 0xcee02e8e90bea10U,
  0xe031c4ff0801f7fcU, 0x4f1badd07e60fdeU, 0xa5dde6172d13d9ffU, 0xedcfc7e915c92f38U,
  0xc74e142331e69edcU, 0xd32eb839bc21f633U, 0xf407ff1cf63cf334U, 0xcae31759810a3b2eU,
  0xff17e9f0bc3edf07U, 0xe8e6230c2b1c2737U, 0xeb1c0debeae1e81bU, 0x4ffee14d1eeec43U,
  0xc50ef0ffd8093f27U, 0x19095337dd0a2f22U, 0x21edff0703eed012U, 0xeae540ec2b031de4U,
  0xf801ec3313d7f83cU, 0x4f71cfafb0ed5caU, 0xf100eff00309d406U, 0xef110305e2272cb6U,
  0xecdaebe704f516caU, 0x3526ea1a16eee2e1U, 0xbe90839eed93907U, 0xec3211371b24f30dU,
  0x23fdf3f611c9efdcU, 0x1210030613f327ecU, 0x1cf71bf20b0c120eU, 0x230bf9f4f82a32fbU,
  0xdf321d23052bad1bU, 0x91f2bec8e5f7a501U, 0xd2e9da0e070408e3U, 0xf6ddbdb1baf9f627U,
  0xf5e8ead3fcfe042bU, 0xbebc0def5d6f42eU, 0xcbf505dedd29081fU, 0x15fa0908092b1ae9U,
  0xeff3f8aec0fffcfbU, 0xe7f81b0ede1dad29U, 0xece3fed4e12793e0U, 0xf908dc10d5fa1408U,
  0xe694dba4ebef1539U, 0x27c218f70f040318U, 0xebfafabbeac44b33U, 0xfac6f0eae606b2f1U,
  0xf31cb9e705f8e5dcU, 0xf8c0142ffceb1a0fU, 0xd5e609bfeee7f2daU, 0x13c124eface61703U,
  0x8fb0c11fcd203f9U, 0xe49bedcf16f4ea17U, 0x2e18ebf4fbc3f4U, 0xc102efaf14eecdf2U,
  0xc815eaeb02e5e2daU, 0x13f106b9c9e000e9U, 0x1b30f512f6d0f907U, 0xc0f5f7ca2500811dU,
  0xfa15cb38f5d8e90bU, 0xc228eb0801ebd8f5U, 0x21fdc2fde5eaffd1U, 0xdaf106d7e4c0f2f6U,
  0x2ed4ccfeefd21bf2U, 0xbbd3012ba5e6ecd5U, 0x1ca9fb0ff620eeeeU, 0x20dbfb0ea0d80114U,
  0xf7e1eae2fd13230eU, 0x300cf60f15020522U, 0xe31deb0f28362538U, 0x11e1f317053c0ae4U,
  0x2fccf1c3dcfb2ce7U, 0x14efe4efc5c32300U, 0xf90a0731e0db04fbU, 0x38d904eee7f9eef6U,
  0xfd0a0d0113d5dbe6U, 0xf9ee02d23935c628U, 0xef33f50905d023f5U, 0x1fca0ae70aeceeb6U,
  0x120adbe3f92b02e2U, 0xd003d31519f226edU, 0xd8fd17e7e5dbee20U, 0xe5f2371b14dcfd4fU,
  0xceadc1003dbe504U, 0xcdcbf1f716e4080dU, 0xfd06041012382bebU, 0xc9fe02e70ed6060bU,
  0xd509ecf4371831ffU, 0x20c30ac8f6c9e4dcU, 0x1132da1806b4e3bdU, 0xf1b0dddf3beec01cU,
  0xf60ce2321ffcecd5U, 0x9ff7ceaf3bdfff31U, 0xae1d0fb1c03f0bfU, 0x9e81f0affbbdc2e2U,
  0x2aea7c9facb0e09U, 0xeab4dbe8fef7e1d3U, 0xe2d0bf1ceff5e7efU, 0xdcb93ef712b5a30eU,
  0x32b72922fc0ebef5U, 0xdfa7f9e0e728f5f5U, 0x3bd41addf442c814U, 0x2281acfe52550325U,
  0x81eb6971a0fc71bU, 0xb30ebf2dff24b7fcU, 0x9d23d600fbece9f7U, 0xcc05b31b43ffcb21U,
  0xb804db24fad2d500U, 0xdaa4f2d90ed70229U, 0xed230fca29c9c4c8U, 0xd2bafb13271722dfU,
  0xb135f33835fbebefU, 0xc6ffe6f9031c07e4U, 0xe4f1f9220be5bfbfU, 0xe9d1eee7122701ddU,
  0xe2e9ecf8e20beeedU, 0x11b410cfd1abeebeU, 0xdc0a1bfe15c2ccbfU, 0x29d9d2e2f6c40713U,
  0xe9fff51d4a033beeU, 0x253be2fa1b1be3efU, 0xf20e18fd160f431dU, 0xf310e417f620120fU,
  0xca24444fbce3f91fU, 0xcad4efddeab40310U, 0xe0de1319dcccf717U, 0xf8ad00c216c0cd24U,
  0xee1c4238e9ed2cd1U, 0x490e5229020c73f2U, 0x16fa08cce9ecfef9U, 0x1d01f906fa14f727U,
  0x2412a6f6c50220fcU, 0x11e0ffe00119c80dU, 0xad5cc3ea42f6dbe8U, 0xe1891ec42e9f4c7U,
  0xd546c5047f12b0a4U, 0x9fee0fb08dde9e6U, 0x3306d7dbeefccbf6U, 0xfcd4dd0f08e90d29U,
  0x27490726e5ebe6daU, 0x1940132203f1f448U, 0xda57eb300b00e8b8U, 0xe5420107f0b32714U,
  0x13eb48bfe7642c3bU, 0xd707e6bfe9c5a937U, 0x21dcfbde8ab7394eU, 0x9f4fc11c1c0f9f4U,
  0xc050a650afd03d4U, 0x4fd16161724d121U, 0x11e4e3e2fa2c37e7U, 0xf138420409d863e8U,
  0xb9b56f602fa317bU, 0x1331edf9fc22e2f6U, 0xcc611c9f0c3f71aU, 0xddfb1aef218ee34bU,
  0xfbf3cd5a290cf9fbU, 0x9e3d0bf53a5ae7efU, 0xcefeefd26e12d48U, 0x957b117a07171d29U,
  0x14ef122fba240853U, 0x3041e734091a2ebbU, 0xf810b4fcffeafac6U, 0x1f7c7fcfaf5e4e7U,
  0xd60deb4820df17c2U, 0xcef6e3fc1b011d11U, 0x432a24231c1609e3U, 0xda1dde811fd0d908U,
  0x305200f901ac10b2U, 0xc90221dd2119ffe6U, 0xe446ff2dfb05ecf4U, 0xf4441d07f6fff7ffU,
  0xe136002e47da2519U, 0xfa33f4ffc9ce12d7U, 0xeed7ffb1fa014e3fU, 0x72bff19f4f2ef1fU,
  0x1fc4e8ccf0460668U, 0x210816f8280b0008U, 0x53b03d5fae41008U, 0x70ce40ee62700f4U,
  0xfaaf0efed0112131U, 0x1807f62db2040321U, 0xd02ff32fa20cc19U, 0xcfdb1cb03d8492cU,
  0xe826201dfdf1bf1bU, 0xe0c728e9f5f3c8faU, 0x18c0e7e4ee0c03dcU, 0xdee9da0bb8e6e8e1U,
  0xede3fa110be90e03U, 0x21ef08d518e3002eU, 0xc80cfb13faefede0U, 0x17ab18c624e20131U,
  0xe50d04141cdbf3ebU, 0xa2ffffff56U, 0x11effffffecU, 0xfffffebfffffff7bU,
  0xffffff1c00000128U, 0xfffffe0c00000235U, 0x172U, 0x3affffff9cU,
  0xb900000428U, 0xfffffff6fffffddbU, 0xfffffeabffffff88U, 0xfffffe56ffffffdbU,
  0xfffffceafffffce5U, 0xfffffe4d00000117U, 0x34000000e3U, 0xfffffbb1000000daU,
  0xfffffe29fffffc23U, 0xffffff35ffffff1fU, 0x25bfffffe1fU, 0xfffffe9000000458U,
  0xffffff4dfffffea1U, 0xfffffe6c0000028fU, 0xfffffdfe000000c2U, 0xfffffeadffffff7fU,
  0xfffffd6effffff28U, 0xfffffec6ffffff7dU, 0xffffff6dfffffc49U, 0xfffffdc3fffffe56U,
  0xccfffffe54U, 0x24ffffffcd3U, 0xfffffe1efffffe2fU, 0xfffffe10fffffeb1U,
  0xfffffffd00000062U, 0xffffff08ffffff09U, 0xfffffd830000010fU, 0xfffffdfaffffff46U,
  0xfffffde3ffffff65U, 0xfffffec500000035U, 0xffffffdd00000025U, 0xfffffd04ffffff0eU,
  0x181ffffff8cU, 0xfffffebeffffff58U, 0xffffff15fffffe35U, 0xfffffed0ffffff40U,
  0xffffff49fffffe64U, 0xfffffef7fffffd26U, 0xffffffacfffffe42U, 0xfffffcbf00000062U,
  0x3cfffffe7dU, 0xfffffcf10000019cU, 0x80fffffd9dU, 0xfffffe79fffffdc4U,
  0x17ffffffdbU, 0xfffffe1700000063U, 0x12000000023U, 0xfffffdc8000000caU,
  0xfffffd89fffffe21U, 0x189fffffd43U, 0xddffffff64U, 0xfffffeeaffffff57U,
  0xfffffec4ffffff44U, 0xfffffe0b00000144U, 0xfffffded00000214U, 0xffffffb70000003fU,
  0xfffffeeffffffdcaU, 0xdae2c12dc82325c8U, 0x312cda00982de9bU, 0xa4de38f820a9e0c2U,
  0xd70d1022c82a121fU, 0xc632ebb01d81a7f2U, 0xc9eccf122af8062bU, 0x17e9bee217e6d70cU,
  0xfde3081d03c131e4U, 0x9a8c307e6af1ffaU, 0xa7f02820c8d914c4U, 0xb6ed21a3a2e50e34U,
  0xf2e2fdf01cf6e9fcU, 0xb2c3efe7f9a1fbd1U, 0xf7d2081811c50515U, 0xfd1d07fdd5250c95U,
  0xcea53fafa4cec41fU, 0xfc210bc5a91339adU, 0xe02f0cf607ddd8eeU, 0x97c522e8381fb719U,
  0xfe00e11520a3ea05U, 0xddc00f25002912a1U, 0xe80332f6c906f423U, 0x4502ecd0d9f0c981U,
  0xfdcac5e7d32628f4U, 0x71bd40af52dc8deU, 0xee08db23d323fa0fU, 0x2d10b61335d2e3c6U,
  0xabfcec4afd0bf500U, 0xfdd700e005aae800U, 0xd420ffabe92a0ab2U, 0x1cbba814aedf2603U,
  0xd422fd2bc81a851dU, 0x1e90e518aa2add21U, 0x32b9989f1fbfc3e8U, 0xcc4a2d10f80cea43U,
  0x3a0cf4efe720eca0U, 0x363dd1f683fa0ce6U, 0xc81ad503f42004b4U, 0xb2240829dc17e999U,
